/**
  ******************************************************************************
  * @file    network_data_params.c
  * @author  AST Embedded Analytics Research Platform
  * @date    2026-05-18T10:49:09+0300
  * @brief   AI Tool Automatic Code Generator for Embedded NN computing
  ******************************************************************************
  * Copyright (c) 2026 STMicroelectronics.
  * All rights reserved.
  *
  * This software is licensed under terms that can be found in the LICENSE file
  * in the root directory of this software component.
  * If no LICENSE file comes with this software, it is provided AS-IS.
  ******************************************************************************
  */

#include "network_data_params.h"


/**  Activations Section  ****************************************************/
ai_handle g_network_activations_table[1 + 2] = {
  AI_HANDLE_PTR(AI_MAGIC_MARKER),
  AI_HANDLE_PTR(NULL),
  AI_HANDLE_PTR(AI_MAGIC_MARKER),
};




/**  Weights Section  ********************************************************/
AI_ALIGNED(32)
const ai_u64 s_network_weights_array_u64[2369] = {
  0xd1a43a38d7e6419dU, 0x6cd4fb7f8b457713U, 0x3c05d636405a804U, 0xab87b544102e453cU,
  0xd9f27e4814ada72eU, 0xea2d5bec564af67bU, 0x8e94f61e67f9d2c0U, 0xaf7c53c5ea53614fU,
  0x8caedbada6d446ebU, 0xa49af07d1dc39c13U, 0xa8e9a21c13885c24U, 0x460644ccd40badfcU,
  0x8953dfaf405c9be1U, 0xbae9de28c4af5eacU, 0xed7c2e04d0dbf54aU, 0x1f569681cb0b60c7U,
  0x394d4b764b5ce2a7U, 0x11063b01c88749a9U, 0xa7f9df3e8fca70a9U, 0xb7046a8efecfc79aU,
  0xa8329c871d33e72aU, 0x62f4668d099b5360U, 0xe357cb041a8c8833U, 0x18d33aaef53d9a99U,
  0x426010ddec83534cU, 0x670edd0d848d08bdU, 0x2866c3705eb035ebU, 0xf18e9011315f1f3eU,
  0x2ebd67a85e491691U, 0x4c4aa2862b4f87b3U, 0x56a337ac1f7ec404U, 0x5c16a2137e657087U,
  0x299d7d331c6073aeU, 0xf0d15303a6e92053U, 0xab859da14a40a9dbU, 0xdc476ea3fd82084dU,
  0xad0fe94a86af6f66U, 0x7f19e6e98c1ea8faU, 0x3161c5b80f7460b2U, 0xeac2b77417ecdc77U,
  0xf8d3943127292462U, 0x5fbdd7d87de57766U, 0xb379c819a0a47d81U, 0x3655697edcadb27bU,
  0xf18747f148515cc7U, 0x3f2f789ddec1af13U, 0xdeca68a84a4f2c1eU, 0xb4c22dfff7531a64U,
  0xdd3b9926cb644060U, 0x1a5845d11ed1f9bcU, 0xedcf7ed18cdfb19aU, 0x934d5bb9a3c9693cU,
  0x8b58323f75082e5cU, 0x1bdaed0465fcd6a7U, 0xdefe221ddc020feeU, 0x73ab96fe4b58a87dU,
  0x6a2a4e0e7381e361U, 0x725216e8858da077U, 0xe64a4d5e79a820afU, 0x9ce1456dcd8acac3U,
  0x5d6401ef9f16def7U, 0xa68741f33a40064cU, 0x32d4ac0f58deb55eU, 0x9f20016b1d097925U,
  0x889fb098689a14cU, 0x9496ac2b0ce48d26U, 0x97982159480c8a60U, 0x7dfefd56ddba67f7U,
  0x52766f320e9efdbbU, 0x5d67f9976e7da8cfU, 0x5c965a3eedcb908eU, 0xab54ec8f3a677f74U,
  0xbd3d3de95d56537bU, 0x87e1df6eb1d3ba2dU, 0x6459201e16125a4bU, 0x34ac783b23fbe658U,
  0xaa3c5db53e21d290U, 0xdb3f19ee935260a2U, 0xc46ce6e3bd4b3324U, 0xe849f505352b570U,
  0x38f4e4b78b4820feU, 0xefc318b09b597454U, 0x775ef34da9d30e50U, 0x2f9d21165859097aU,
  0x54c3cb4f37fbc222U, 0x41e25339b7848f1eU, 0x7fad5288c2e2a485U, 0x13284c6f2e784918U,
  0xf0193f45754aeaf6U, 0x674876b5de323260U, 0xfc95eca75fd36167U, 0x470f79f5d9d3f197U,
  0xc3889940a8e67848U, 0x65cb42c4c3c027ebU, 0x822eb8d06910f25dU, 0xd8b77d01858ab7c8U,
  0xae050978b444a435U, 0x1eb05e1705886e28U, 0x684a1f2b439d8b27U, 0xd183e84c14656fbdU,
  0xe6739429998ab99dU, 0xac1ccd0a79dca215U, 0xece8de5f5b724194U, 0x2dffafce87c7db25U,
  0xee4ace9ce6ddf4e2U, 0x6f9c0adaf1dceb41U, 0xb913df0489b2235fU, 0xce151859462432d9U,
  0x4513416a8127e73bU, 0xb232f6d841f5d5a2U, 0xd8d3f87e55248595U, 0x514147c308027431U,
  0x88461ad4a5e4e0caU, 0x689bc179cbe811b4U, 0xb44a9457b7d1705aU, 0x58af63b9ec052597U,
  0x6d47861b532e540cU, 0x1cd1123c671f7f0dU, 0xa31f617cb0470e9dU, 0xea6a587d567eb1adU,
  0xb0c93fd9abccc7ddU, 0xd1da88821428488dU, 0x460851b6d4ef8324U, 0xbd9f760dfb3da3eU,
  0x7742193e2bbe628fU, 0x8f0f6de8fbf25ea6U, 0xbcfd3dd96353477cU, 0x94826f574c89df20U,
  0xc2bf0d169dac4cc2U, 0x6f03ff5cbeafa6a5U, 0xc8952e399a97e29dU, 0x767c81cdfcc3ee0cU,
  0xabb675477eb03934U, 0xb8d1831ccddbadb7U, 0xc40efb78600bf5d8U, 0xd12d3cb741fdcc39U,
  0xfe4b09d647e2bda0U, 0x9f1caca20b168688U, 0xd78e6f15519f1230U, 0xb973c040214383beU,
  0x6390fa660da6f4bU, 0x7a63aaeee15f2c60U, 0xa51d30558c4b4801U, 0x38d1613ab9d51cfU,
  0xa488722fd5eb16a6U, 0x97f105840b384b70U, 0xfb07479d3cb5f0daU, 0x6da460090be6d8b1U,
  0x3002573f821d2b1aU, 0xfddb1284f0e81491U, 0x595924ea44ba532U, 0xb879e4ed8bc8c127U,
  0xb1217b350f1c2aeaU, 0xfb61b014a75db736U, 0x26badf99ea0c2b9bU, 0x2d42e1990242e79bU,
  0xf797dba8f9821eecU, 0xce74f6b9138483e8U, 0xf84683238bd03aa5U, 0x73fc8fd357fa24bcU,
  0x7abdfbfc267d4e9fU, 0x131ee767540ee85bU, 0xb1afb464dde6267fU, 0x434ed0fe13cf9a5eU,
  0x3de6b00e5d582ce4U, 0x3ec9b0ba00c0faf6U, 0x21a5bb5e01675ffdU, 0x7c77a500b712e3b9U,
  0xdeae1e6f557d6ea8U, 0xdd7c611ae1988d9dU, 0x5e515ba7aca564c5U, 0x6aad089aaccf92d2U,
  0xe759c724425867a7U, 0x62946fc00938039cU, 0x349ad636529d0c19U, 0xd8033e64e63c463eU,
  0x3e3dc90dd78711bcU, 0x7aaa0e44061ddfd7U, 0x79d0c7c22f214b49U, 0x8975f2d0369e9f5fU,
  0x38b6170f2f2dfc9aU, 0x8e5503d734352175U, 0x651f59f28de1b4ebU, 0xb205cf3804ecfff9U,
  0x2749f2494f9907f2U, 0x8f7478e40827f274U, 0xee260ace28b65985U, 0xd831be2635fedb9U,
  0xe15523eaff0f465bU, 0x52983fd9f77734a8U, 0x7816d3f95e8a578cU, 0xe113ae68d0ec84a8U,
  0xe37842a7157da781U, 0xeec3475789b7aafU, 0x1a1aef72491a950bU, 0x33e9012e37f172f6U,
  0x5f13af2c1d7c93f9U, 0xb12f162c4f37d626U, 0xd061cea5ebe6f7ceU, 0xfc23087bd2988ba5U,
  0x3b249046034a77c7U, 0x1da322f4379bcda5U, 0xbb01a9455212899U, 0x7c46c9bba81355dU,
  0xf9400e3b83ced74fU, 0x88fde4e050ad5e06U, 0xd70362fa170ec5a0U, 0x81592842721e595cU,
  0x6e6eee39fc507f9bU, 0xdda4f73f5f977218U, 0x6b3fa91643e9afd4U, 0xf5260f173352199U,
  0xdd015a094e6bf432U, 0xac67cff3a78dab35U, 0x7ce9fda7de2e3211U, 0xed6c97cece1dfafU,
  0x578235c6b141dcf3U, 0xb88c97269fca2aa4U, 0xd244f331fc51629eU, 0x56e466fba050d3dfU,
  0x7fd271a931a67296U, 0xf6e036d0c83d1866U, 0x673bb8101b133015U, 0xab5578d47c7d1e49U,
  0x3a9a59d26b9e839bU, 0x84a6538ffef4a5feU, 0x4ebef41f641835d7U, 0x2aeff883a801af7eU,
  0xe685c62e099066d3U, 0x9ddd60738f19f009U, 0x58dcbbf2bc43f0c9U, 0x197262ecd7653028U,
  0xc940aed3e6e2d8adU, 0x18c56092b74e5601U, 0x46a02d739f718d4aU, 0x4d25993b0253e019U,
  0x3c6275e629e80a19U, 0xd686431aa8517033U, 0x76d5c8261ea2a825U, 0x5a13ce950e23d73eU,
  0x460c574006be3151U, 0xe45bb1f7ac985fd9U, 0x6c92f80b1508d93eU, 0x61a59b2d8191ce5fU,
  0x129ad995d774b842U, 0x583a9799678269ecU, 0xa0484b48117ebe3bU, 0xa409dd36c22b6c7bU,
  0x2f410b170508bfb9U, 0xa3d767993ef42a52U, 0x512fc3193cc14ffU, 0xcf6de7e947e7d337U,
  0x2467b85b265a039aU, 0xfc7bf1d14b244391U, 0x2d30cdae6b396d27U, 0x8e119a0e1490367cU,
  0xd609bf954ad002b3U, 0xfca288f5cdf221bU, 0x83852d95226fabfeU, 0x60acc9404d509fdaU,
  0xcb8299a2950fe0fcU, 0xe00e549c76de6828U, 0x6dd3e8eed1948326U, 0x1cb6fef5b7759821U,
  0xd15305677bf1413dU, 0xb59553eb28386067U, 0xe26b3a67ebf6c341U, 0x58a6dce47b44fdbcU,
  0x7c8fa9865b1245f8U, 0xfbdf4d8ad719469U, 0xb89dd16ec9b289d5U, 0xb3a2bfab0afdf1dbU,
  0x906db4067ff3f801U, 0x4b7ed0a623569997U, 0x9e46d5e6b131379bU, 0x3361a7fd7ec42be7U,
  0x9c930017ac2b7562U, 0xa019d03683b4281dU, 0xdb4518e1389cc990U, 0x76715100a18afe0aU,
  0xa2f9e65292f6e756U, 0x6d25db32e7a28daaU, 0xf92ba87c22b8b25U, 0xa227d1192bb613a8U,
  0xc7655a2d4f91d689U, 0x4739bb44e5e6c8fcU, 0xa7f345dbb2b41824U, 0xfd531bcf4e014dfU,
  0x5723178626ea2e82U, 0x51424103c5930d42U, 0xe90f96590a35554dU, 0xd0343aa1b9bf4f46U,
  0x287f34346c8e2fdbU, 0x8cb2fd87e39a731aU, 0x7ae4480316efa29dU, 0xae97a4ac995fdffdU,
  0xc4eddb3c444bb0a3U, 0xdda1dd915ac1f21bU, 0xc0ec1b9bc579e799U, 0xeaf577ad73af3ae2U,
  0xf61df797d0761c5bU, 0x2d43a95cfc975891U, 0x452146ca1072ea32U, 0x358eacb20741113dU,
  0xc46aef54ad004504U, 0xad02f414fed97abaU, 0xb9c7d0a043af03d0U, 0xe73fa83286fe4325U,
  0xaef3cac10c9dd665U, 0x77b2d06db4a4e3a0U, 0x3993cd387238eaa0U, 0xf23490fac58662bU,
  0x6ba8de532716bcedU, 0x6fb4d3483ddb20c6U, 0x35935a0dd08caa65U, 0x4e2582e9e889770dU,
  0x7b9c949932637c9eU, 0x9320c36269a3ed4cU, 0x3192dfb63e7e01e6U, 0x9aaabee3127fbae0U,
  0x6d07707fe8e7c6faU, 0x4e2e687351f23652U, 0x8ac6b3648f9ddb1aU, 0xd512647ff14bbf0eU,
  0x1ed5ea2579ac4feU, 0xa1485bd9376d184aU, 0x4af988f7a38a836U, 0x1d233bba1b35db3bU,
  0x90487dee2a11caceU, 0xdbcd38c3fc6541b5U, 0x7543daeb1331e2deU, 0x95cbf33a6e14c8c5U,
  0x433a26d515748c09U, 0x2ca45a1468895c6bU, 0x449c65bb19f0332fU, 0x3b54da3de3e03979U,
  0xa6a621ebd9059042U, 0x186bb0054ac046a9U, 0xf65f9008ad7a04cU, 0xea22b76ab33d4017U,
  0x5a91c8e04c116b3U, 0x1266011e8341f5a6U, 0xeb52896c1820cfc1U, 0xd3aca5f358fcd78dU,
  0xcdfbeeaa63fd3a95U, 0xf2f74bf0fc4f733U, 0x2f37b9dcc46553feU, 0x5304f1f3f2c02ab7U,
  0x9a1720c850c0e39dU, 0x92e5106745c3534aU, 0x35922fe05ccea178U, 0x4c3e3c20ae4c8a60U,
  0x3097a35814290924U, 0xc14dc7fb2549a26cU, 0xede694a1b08ba185U, 0x90729863a9013f12U,
  0xf83837edf8d81952U, 0x2a8d013be294872fU, 0xe2e840eedbedcc1fU, 0xe98c0227f4c1887U,
  0x2e13f6fef8f4859dU, 0xa52a48a1e962566U, 0x766044bc2f215ac6U, 0x26486ea3c8e340dU,
  0x11de89b61f0f60dcU, 0xad1a088926581efU, 0x3fac9359690098ffU, 0x265b607cffdefe59U,
  0x76b96840424a0341U, 0x5645e872a2f0a1e2U, 0x82addfbc74a090dfU, 0xfe2f46e8f77bf3e7U,
  0x2d87724a477ffe61U, 0x3ba3494d633675aaU, 0x48533b1b4225192bU, 0xa0c87df11b2a0c39U,
  0xe64e62ab75eae415U, 0x2f544bf9d5191f9aU, 0x4f844f331436e1c5U, 0x40f83c104724d2eU,
  0x67b7f79c1e2779aU, 0xef38652b93b3f244U, 0x38a89f049aebca69U, 0x88c660ca669c448U,
  0xa3560c88d238db20U, 0x7b6076f689d11a7fU, 0xd2b114fd55d5b246U, 0x69d81586472f7a52U,
  0xcdef7c102d5aa535U, 0x4db800cd7c5b3ee8U, 0x8620b50d2930cc12U, 0x1a41c4a048a426faU,
  0xd295df83054b8a9aU, 0x3d8cdee62e173c40U, 0xb4b03eac37a61e6cU, 0x2f7684d5c7a8db94U,
  0x37d98af224c4bd6aU, 0x779e0a6da0581e45U, 0xa28452d0f45def11U, 0x6959521a450de343U,
  0x78b0f771fcc4b8dbU, 0x35d0d8f11a939062U, 0x9c8c2949dd7c7f72U, 0x41695c1c0a653239U,
  0xaa8d236f6d71c91cU, 0xf714f85d6a2161cbU, 0x533d8e01ba1b2164U, 0x2a50397c4ad6738U,
  0xbe5bc5750a1b9bc5U, 0xda2ea3d9ce7408a8U, 0x5a17f798d49c55c6U, 0x2c3807ae4cffaa87U,
  0x668dfb5426877f2U, 0x620a10d97b83c03dU, 0x156401d72ef9823bU, 0x1a4861bf7c507035U,
  0xb8ddc794846b26deU, 0x3983dc8d02723bf1U, 0xeed5ae4d9f208109U, 0x5f072bdc859485f5U,
  0x5d48d7ec02e44576U, 0xbb4b0c3f734d17d8U, 0x5efdb94496f58bd7U, 0xd6e37a33aabc9456U,
  0xf7f76492e4f564e4U, 0x391eaff15841463cU, 0xd2e38b7aba33be89U, 0x7419374da1126c0fU,
  0xa0fd9ed7806a811U, 0xbeddfccf1d24dc14U, 0xbea39ac38cd120f4U, 0x5dd17f4c86addb4eU,
  0xf1d51cc81f81823dU, 0x7d8a0668dd181737U, 0xe03248c07e3eaf82U, 0x9b7e7f8ab1cfa0bU,
  0x5f583483069b4eb9U, 0x57469b4e3559e40dU, 0xfa4214313c84aa00U, 0xd58c0b9adb7636ecU,
  0xd71f7f9434edfd70U, 0x36afa77cf4cb0ef7U, 0xd08554e2146c3a44U, 0x22efb30be85537b4U,
  0xac7a22ef6c1bb319U, 0x5e1ac5c7e3bb2fe3U, 0x25e89a326cfd7884U, 0xfe99e98705334b90U,
  0xd1615d00fa623120U, 0xe8f6561d0cb80944U, 0xe14869e28eb92265U, 0xaef7bf4cc95e8e83U,
  0x509d0603e8eaaf9cU, 0x9656da54588892e0U, 0x27c108387888b6fdU, 0x449e5bdba710f1c3U,
  0xb7e6e80bf86c85a3U, 0x27cc757c05320921U, 0x9fd5f54d6ce12f11U, 0x45aecbabc15f1483U,
  0xd892e647723f4644U, 0xbedec9881d192e7aU, 0xb702d63b9a05fb11U, 0x63772e3463eab651U,
  0x98826f83b72efeeaU, 0x6c05357e304bc546U, 0x248f81325752332dU, 0x14346ceb8c2a394aU,
  0x256b71edc5e26924U, 0x769e89c2eef419d1U, 0xc58a222966ac831fU, 0x535f914890edffdfU,
  0x481732e6d4ff487bU, 0xa80e460712c9bb86U, 0xeb8bf406f5ed686fU, 0x8153c12c99de8556U,
  0x5130645c72e4832U, 0x9c8f5d7a9c90b939U, 0xa2bcd6397283433cU, 0x8ddfe367f40a5216U,
  0x3bba992923f90095U, 0xea8f3b28cf6da81dU, 0x8e88b43d3fb2faecU, 0x17612045dbbef0feU,
  0x7b269ac8a3afc41U, 0xe8218efc55306460U, 0xceaa751b9b7d2ff6U, 0x7f52c472ec834751U,
  0x28f1603b0387e0a8U, 0x600e8eb8d102c871U, 0xec5b61b38e0b06bdU, 0x617ed49e9376fbf6U,
  0x656356fdc52e3441U, 0x63a57592b9ce71f2U, 0xad84508ce3a3cec3U, 0x7f1e206618e08d02U,
  0x453181f0e50ea73bU, 0x8942e8c751184aU, 0x8add4673eb6b581dU, 0xd392a62c4ceeeddeU,
  0x7527072a8a1bb0beU, 0x1f1536605837715aU, 0x1c18cd304e0addbaU, 0x798a2bf26934eacaU,
  0x62b78fc51fe97168U, 0x207dab1ee00aad81U, 0xbd4cbc824feb27ecU, 0xbffae143af6ba9faU,
  0x168ba7b6242e1a4cU, 0xa7c5ea3f1d77b522U, 0x4ec13af0eea9981cU, 0x8eef8b13fe3e56abU,
  0x3a9504f4b59246b1U, 0x38717365c0e1fe05U, 0x7170d62bfe317a1bU, 0xf844e23d1c3bfc84U,
  0x2cab2faf0b405440U, 0x8ce349fb2a0f9750U, 0x42fb7b95fe1a1740U, 0x84cb5546e63925c7U,
  0xf72783453ed7d28U, 0xf576362cd7628f1aU, 0x703d79bbfb4bf5daU, 0xae398201cccc1572U,
  0x597d04e0f54c00ccU, 0x3afae6dc8c74d593U, 0x2023a0f634a6a860U, 0xcced4a7085537f1fU,
  0x672a49c84b285197U, 0x28915f0b3a8db62eU, 0x927b0003302ca443U, 0xae164fda549f94d5U,
  0x2ba97a52d82f3a04U, 0xa62ba0d46a57c7f2U, 0x72cea42a3a1f3f03U, 0x6cfc292df7959500U,
  0x42ba5729e30fa0adU, 0xd9036793c10778a6U, 0x7a08af342ae69e3aU, 0x6fee4a710f3c23dcU,
  0x661b4d68a0d5091cU, 0x17190afd195b3523U, 0xcba6f30b0e3088bbU, 0x6ccf924c588f7d97U,
  0xb1e34f95b9e52cf2U, 0x5d3ea4f4ffaeb4c1U, 0x991384e7f722af67U, 0x608ec8ec21033224U,
  0xdbf00769aa91732U, 0x7c0bdc4db80aa5f1U, 0x99d7440d9ecc6e0eU, 0x3ef021242451a869U,
  0xac269248ad7f9962U, 0x1a5b3881b64b2188U, 0x7053adfc1893ac9fU, 0xfd4acccbec606ca8U,
  0xda16401754c6c15aU, 0x1476c6ece1dccaa9U, 0xa0b64043ff677a88U, 0x3407221997168c15U,
  0xfc5807b99b42cd82U, 0x6a6f63f5938e00b1U, 0xe6ab1b47da391c34U, 0xbdb7024a58a34862U,
  0x5394a436db27a26fU, 0xd7c8cbb41614b917U, 0x853d49652e955ea7U, 0x5e0770a1d993c78cU,
  0x7f658f81bbbcdcdeU, 0xe2fe2ff0e70febcdU, 0x885b5a9b1a3c8a64U, 0x3cb27994b908fe23U,
  0xb0ddb7fd87dc27c8U, 0xab25356354caa8fbU, 0x61c9514dec09baabU, 0xa343cd5142eed2f3U,
  0x19a3f2fffa850225U, 0x15ad2be8d645f905U, 0x86a67f22bfb4bd12U, 0xe04236083523ea68U,
  0x858f984e105ab92fU, 0x91388f24b041ced4U, 0x6901acc75f0a21c8U, 0x9b36bb9fcee37f04U,
  0x37a55be83afbb1b0U, 0x76592d89cbd8a5e6U, 0x7ae2f3442c353dd8U, 0x1f0aef324d7101e4U,
  0x50a5786829febee8U, 0x47f4bb3724a53e75U, 0x1e4c375ad12582f0U, 0x6575f265d4bf602cU,
  0xb714b958051a0914U, 0x6cedc68bb7e526eeU, 0x2e8e25299ea898cbU, 0xfe9fa54792f4a036U,
  0x8e3c14addca6eecbU, 0x41980ba437de2115U, 0x6f4f59471cc114d0U, 0xbb42f4c6f4e04d97U,
  0xbf6918e9114a7f14U, 0x3d58fc5dddb26318U, 0x9fbbb228c1089b4bU, 0xad13b3196475bf56U,
  0x8b364d63b8aae876U, 0x855bfaa5280682e4U, 0x1d94914c7f0846e0U, 0x432b86fbdb1228ffU,
  0xb24c86474fcad528U, 0x56ac9fa3fe15a507U, 0x417be15b9e1a4015U, 0x1375ea8f24cbb900U,
  0x1c0401fbff243774U, 0x1f5014d2e4760721U, 0xe9e01a7b498d9665U, 0xc4ebdce4e482c716U,
  0x2f7af4fbb9cc19a7U, 0xf13f30fed20cb9c9U, 0xa9a1636e410c902bU, 0x8e88aeca81daa98dU,
  0xa422e2462346e063U, 0xe7a58ca7f19e566bU, 0x89bd5185f68c330eU, 0x316dc391c742a0d3U,
  0xfff9bb9e53034956U, 0x61d270af23e40193U, 0xe19601dc12cdf1b7U, 0x6449db6b1b66e757U,
  0x8b81bc6ddce0c51aU, 0xa4af62f3e21dab44U, 0x6e1ecd3110fc3678U, 0x819ca375c2b39279U,
  0xccdbb3e0b5b16992U, 0x2dbeb374a97b3864U, 0x4d0feb4219f559a2U, 0x269a98c9086df81dU,
  0xcf0155e5db0a4a1eU, 0x3ea5158ec24c8e4eU, 0x3e011c89a3968bb2U, 0x701d30936a3a3d67U,
  0x99e78cf189910edbU, 0xfcb30ef0a32f13e7U, 0x8d412243c6586da4U, 0x17c2df0876f79a6bU,
  0x4fc37573012ab409U, 0x5e2055d1bd98ce57U, 0x8bd354d14f468747U, 0x9afb345cafd5ee46U,
  0x96820015933af465U, 0x9935a657bd7669f2U, 0x5d06e99d99eefd96U, 0xb03e950026b3951U,
  0x257c394b56df9b95U, 0x20668ee485f46a7fU, 0xb7549eefdd34edf5U, 0x981efd25540b2a54U,
  0x83ce0b1706e914edU, 0xc165768a7b79d9dbU, 0x66c8562b6e2a1d0dU, 0x3fbb24534ce3c10U,
  0x1c3f8969d78ea3e6U, 0x69b8fd9ba6a6e06dU, 0xbee51019c9afd56aU, 0x3f4f94e3220f8548U,
  0xcc79c23a000d4f17U, 0x340d54b1c40c2a0bU, 0x7f811135109c2131U, 0xb687df774a3c768dU,
  0xc382c276db2435bfU, 0x5878ebcc06fc6952U, 0x16e0fafeb5cc4f7cU, 0x4a4079fb2151a2a4U,
  0x31c527ce09825341U, 0xe2a191c5c39f6ef7U, 0x7719a3940072dd3eU, 0x7f9292b95285a419U,
  0x6e0352cd18ef7a81U, 0x14ee700fc3ded542U, 0x6837e549dc6494ecU, 0x8e720914cd6955b1U,
  0xf906f6ee9722faf7U, 0x754817e93262cdc2U, 0x57cfb43f43171fecU, 0xe813ab26e87bc60fU,
  0x0U, 0x0U, 0x0U, 0x0U,
  0x0U, 0x0U, 0x0U, 0x0U,
  0x0U, 0x0U, 0x0U, 0x0U,
  0x0U, 0x0U, 0x0U, 0x0U,
  0x53812589f05e7f34U, 0x93fc4ff967df4cdbU, 0x407f8fc37b98548cU, 0x817140da2a8bd2b1U,
  0xbd50f7276933b65aU, 0x33a0eeccd281dc46U, 0xc185f27f24c363ecU, 0x7ec8fe23959a818dU,
  0xb43f4945442d7ab7U, 0xdee51b7f81fafbf5U, 0x81b8d3e2bd81f271U, 0xa881ff09036f10f6U,
  0x38ac254b5093bc7fU, 0xf3cc2fe185707ae2U, 0x52247fa8eafbddfaU, 0x2571818100600f81U,
  0xe92a1adefd7f7a04U, 0x6f81264a313f8181U, 0x3203a3207f65b529U, 0x6a4011aa1f304232U,
  0xaf90d86d511d99acU, 0xddf54f518940a67U, 0x7b585f042c8fdca6U, 0x1e1ffe3f62044c44U,
  0x8ef981a1fa508a7fU, 0x71ea082fc945dba8U, 0x857802e711837f3cU, 0xd0881b7c866ec5c4U,
  0x7f9a4a7f66fe43f3U, 0xa0df575be242afdbU, 0x9c86b431217baa21U, 0xed65021f76f7645fU,
  0x90c8d17681c62f53U, 0x7f3f7f5131f4ea2fU, 0xd4a007ce7a7e7f81U, 0xfa615f088181b540U,
  0x0U, 0x0U, 0x0U, 0x0U,
  0x0U, 0x0U, 0x0U, 0x0U,
  0x0U, 0x0U, 0x0U, 0x0U,
  0x0U, 0x0U, 0x0U, 0x0U,
  0x81b3c8f9af792319U, 0x7de32a487a409c3bU, 0x62a2e22125dd9e33U, 0x2f043a67664e4b2bU,
  0xd9b566f5257181ddU, 0x77983d398d452c3fU, 0xa71cf2ae6ec43fdcU, 0xd0e23b4fabe1939fU,
  0xb27f7d2ef00da260U, 0x7aea848d17652383U, 0x65899594a1b4b0c6U, 0x239b41ba6f63417dU,
  0xa1063a1c3f684387U, 0xbc7f6a0fe3b488f7U, 0xc89679ca60398c0U, 0x357143f072ef22e9U,
  0x7260f299aa43f765U, 0x89205c814701e1d6U, 0xe76ce7ab6a596081U, 0xf1d2af192cff7535U,
  0xe76f82f49909d332U, 0x480b814268c6b47cU, 0x8ffd32ea721126b0U, 0x70b899e346bec795U,
  0x6a97f5752437aacfU, 0xf6c715813c9a355eU, 0x3fc932ea5781899aU, 0x2192c445439e3efdU,
  0x863fcfe669335aa2U, 0xa434da208cfa05eaU, 0x72f6ebe2bf61816eU, 0xbe49e3aebd0118e9U,
  0x4fc75188047025d4U, 0x534fc835e28906e5U, 0x67a5b1b97febfadfU, 0x451800e6f8708fd8U,
  0xfb3182e1fa90d42U, 0xcbb7d4c6731676bfU, 0xdfdf3fd1c62b0bdaU, 0x6522a67f5c949a5eU,
  0x7b68517f5fc1ad71U, 0x8ca22a0bc19e5e40U, 0x1e26fe55d16c306bU, 0xe028edde12300b99U,
  0x3afc596a367a58adU, 0xbbf5b683ea0f81eeU, 0xadafb8504cb8940eU, 0x8591d7374dea61e6U,
  0x9367ec40880681c5U, 0x784dad1aad5df626U, 0xa1ae6ccf71ca4390U, 0xe7c756fe46f1af7U,
  0xf2ab2c82fc101d34U, 0x122be6814c03b34aU, 0x719f459dc40fec29U, 0xeebdf9e6b9d1ea84U,
  0x59692816f0e2120U, 0x30cba1be36b5f9e6U, 0xd59a97cae66bd1afU, 0xf4101e7ec0c52076U,
  0x979a7f22ca1a6607U, 0x4aabd7796534a7a8U, 0xce5bff9d04b8fd96U, 0x6b7a349b02f23db4U,
  0x5dd26268735b300dU, 0x5afd5944f1e3726fU, 0x3948957f22a372b1U, 0x627c16031d8b3b95U,
  0x9c110f93ece751d4U, 0x261a6c0a155eb458U, 0xef389a81addedfcfU, 0x6c252c3ae91284fcU,
  0x733d8731a0eac80eU, 0x34894b5f34b4db7fU, 0x55e28fa5c251319aU, 0x7313af6263c60475U,
  0xa47a9316d8594cf5U, 0x81b51eab4d8c159fU, 0xa12eaf6a0b33d38eU, 0x138821c9533eec08U,
  0x214d7330fc9c58a9U, 0x58ee4ef5cfd87a81U, 0x4365bfe432b5f10eU, 0xd80103fc3c3713e3U,
  0x5359813614c74824U, 0xacda0b2720b50069U, 0xc9447f4f522c8c03U, 0xa06e4b1ff04139b0U,
  0x1ed007b3e4dc5e9bU, 0xa490114fbe33e790U, 0xcdd9bc6b2d6f477fU, 0x6f6d36232ff4a974U,
  0xdc8a5f4ac301a27aU, 0x8ca3dc81e4c0608dU, 0x2b1da2ffec1ca362U, 0x2364f4ad8bc1674cU,
  0x58c4ac0aada0b38aU, 0x1a5fe27a02211bc5U, 0xc8efe92d3e96ae93U, 0x3637012e72339d7fU,
  0x3c21649bbb68c722U, 0x68b175851871000dU, 0x81831e2b08f25e50U, 0x43eb461d291a0023U,
  0x7432bca91c01c516U, 0x7ded183979161b1aU, 0xc598e3aff9bc88f9U, 0xef81c33baf3151d4U,
  0xeb793d75a447dff6U, 0xd743158b6a4402f1U, 0x2f765d813dda4350U, 0x5f210cc8cac9cad9U,
  0xacfb8105e3a42e6fU, 0x93939bf001ceca08U, 0x5eb23ee15ce4f141U, 0xa66ec7d94b9afc62U,
  0x27302ff3dd4ce550U, 0xc650b31cadbe72b9U, 0xab4a0f6b91d17f2dU, 0x13d01558db8d22c0U,
  0xeb1cee3b87d1796bU, 0xd01434c1815720ffU, 0xb9f2380627226830U, 0x1d5ba334b536893fU,
  0xadd5385e7fdf81f3U, 0x6f3ff682cec88473U, 0xfe627732fd7157b4U, 0x72abfd451b4ee8ffU,
  0xd98656c0a57b4318U, 0x63edf3c003296ae7U, 0x2bab02cc238144a5U, 0xf7d29fb40b046f77U,
  0xeca2f3eae57a60f9U, 0x6b2a2789829d6456U, 0x8b81c5f47895c647U, 0x46870b1c654fd000U,
  0xaadefadcaf5239b0U, 0x87f3a7269c586838U, 0x625c1d44fb247f9eU, 0x47e5ab8ffd84e84eU,
  0x2a6b486871af83f7U, 0xa4084a51aafaffa3U, 0x458867bd8107ec3bU, 0xe748f5dcbf2df843U,
  0x874ad7230ba071d5U, 0xffa0bb75931f65fU, 0x6cc90c9b81b86293U, 0x563ca9b1904bfd47U,
  0x592caa3ea6ad42d9U, 0x332435428587974U, 0xdd21428b0429ef1cU, 0x5f964734bbbd8198U,
  0x60eecd89895550f3U, 0x5115636005d06775U, 0x4742982b15c73b89U, 0x8175cf3c72b40f98U,
  0x3fe5c6e72487cd5fU, 0xf086cc34222f905bU, 0xdfcb4476e6784555U, 0x57f6ae780f8a7d7fU,
  0xcd12e01052de9b81U, 0xecafc8566da703fU, 0xd3bf54493e227c93U, 0x8e5f6546b784e785U,
  0x28eafaa6f692bd8fU, 0x2d5df2c7adc48fb9U, 0xe36a5c3c97d2acaaU, 0x2f227f7eb08d33f1U,
  0x59f988ad1eba388cU, 0x7e658f262730a250U, 0xf5467ff57c4fa18eU, 0xd3c2308e2a56a6e5U,
  0x9af20fbfada0f3cbU, 0xf71a86d860209507U, 0x422dbf3bd546a37bU, 0x3e897e9ba6d481ffU,
  0xaa8658269dc27ff0U, 0x72af9b6dde9c18f8U, 0xc2f66cf75f851585U, 0xb2e6793ddc877061U,
  0x114eae9303fbab77U, 0x45f81d0ea2ed3637U, 0x588aa51182b8170U, 0x29204df9cebf785eU,
  0x3ae39012a2b36d47U, 0x85f903b6b1a320e8U, 0x7e8ba61bd725005cU, 0xed405738301c3781U,
  0xd469e1324b7156b4U, 0x52810f686954b54dU, 0xf439a9391dc433efU, 0x2fc9e9fc47f1ce65U,
  0xa30c27d344dd9edU, 0xd69da5c393d2a85dU, 0xa77f62b995e128c7U, 0x7eb4f99be176b141U,
  0xe9a11fe2d059e90fU, 0x649dfa44474b7fc5U, 0x4d5238ceded7dfe6U, 0x196b97af1b53cd3dU,
  0xd1d429f4539be0f4U, 0x7a976a7b3d458170U, 0x6d424425aa768886U, 0x42d7ab976fdfee78U,
  0xfad45425fd7c3abaU, 0x6ba4b5815f8e4d11U, 0x832f81222f455c3cU, 0xeb399b4f132dd8d6U,
  0xc76794e1c8c74239U, 0x5caca91d3c373b92U, 0x5981468ab3719872U, 0x7d9f16a2343d0f82U,
  0xbdc232987fe7a8dfU, 0x691239827ac9c55eU, 0x97596925bffc21acU, 0xbd7f07f686cca027U,
  0x85338200ca7f18d2U, 0x2fff6cf5d2c45992U, 0x349eae2126ad7012U, 0xd7f147beea1902e6U,
  0xcaf77f7790c639c5U, 0x4e93b1ffc102aabbU, 0x5fd411de8988f471U, 0x3ec656d7864bf686U,
  0xcaab248924cef1d1U, 0xa2b8ebfdbf421c62U, 0x72dbcd8fb32c4016U, 0x5bf11f50a2811d50U,
  0x22f946adb7b2b226U, 0xbfd5c67c9981374aU, 0xe0900db0002f1b5aU, 0x858ccead1c15dd98U,
  0xc60621e61ed56dc0U, 0x10a4e8d0cf5e81eeU, 0x4a3e429f88ff9ee9U, 0x577bb22050d0b6f1U,
  0x727d7dc2b6892fc5U, 0x9988b84b02e8b3eU, 0x7b71fa463c25a8edU, 0xae6c7f3610aa7d4aU,
  0x11d32716b61eb35U, 0x7f851c662cfa63fcU, 0x541ded333f3c9964U, 0xd67b4adb45b62fafU,
  0xfe587056f4efda00U, 0x8d87dda2c8fd611dU, 0xf6d97fa73efb04a0U, 0xe726f83cc38e8739U,
  0xe9a7d30b5f66c8a3U, 0x6d92987fd99035c9U, 0xc804745f38f72940U, 0x736622b491288e7aU,
  0x6f72ac861b8450e0U, 0x8c3aa6c800f7466bU, 0x7c711ca2abf120d0U, 0xa581b813e78f9d85U,
  0x0U, 0x0U, 0x0U, 0x0U,
  0x0U, 0x0U, 0x0U, 0x0U,
  0x0U, 0x0U, 0x0U, 0x0U,
  0x0U, 0x0U, 0x0U, 0x0U,
  0x0U, 0x0U, 0x0U, 0x0U,
  0x0U, 0x0U, 0x0U, 0x0U,
  0x0U, 0x0U, 0x0U, 0x0U,
  0x0U, 0x0U, 0x0U, 0x0U,
  0xec901593babf339eU, 0x970dfefed60a76abU, 0xe571438149814b44U, 0x605f5c811f4421fcU,
  0x7f7381284e56061fU, 0xa6313a7f0f696055U, 0x26f1acfcbade813cU, 0xbb8c0cd210e921feU,
  0x7f7f0f8881bacd14U, 0xaf966581ac0cf23eU, 0x78367f7fab8d6c35U, 0x8638796167f5e776U,
  0xa953f57fb2a11924U, 0x90721a95fe7f7ad4U, 0x4bfff874700a4142U, 0xb61b227fe6d48147U,
  0x347cb0e5d9dfa9bfU, 0xca49b472b393c94fU, 0xc3f1111eef7d4a97U, 0x87991f273b500626U,
  0xe47ffbde9e81819cU, 0xd3d91a6bb90bbf5aU, 0x5ae8c5d5b968c4c6U, 0x9cecca47742b0aaeU,
  0x412eda5b86d848e6U, 0x30d59e4aa0118581U, 0xeb3642d9eee318c1U, 0x6fc63a7c7a29194cU,
  0x2ef90b9481b309afU, 0x7754e067ac483552U, 0x812f2e812cc094a8U, 0x2d5bc79d9c9d3fddU,
  0xfb8e9f7509147f9eU, 0xa2a45028a15593e0U, 0x81d6e7a287a8d819U, 0xa07f81627b387f74U,
  0xef73b596c31a7fe1U, 0x81cfc31f6ac0bd99U, 0x947f91bb4aa67a0bU, 0x81cc44f3ee9dff24U,
  0x29e26a2c6ec1ed60U, 0xb05263df661c3d61U, 0x1e44260b1c88a272U, 0xe5bb62c0cfd71c8dU,
  0xbb3088aa3fcefb81U, 0xf87f258ecc0f4526U, 0xe323e2f97f81396bU, 0xe46f81907f740f51U,
  0x9645817130494006U, 0x98dcf2be8bf68675U, 0xb48162a0d6f57f81U, 0x7f68bfbd7f817c16U,
  0x47b8ab43d7cdb098U, 0x3f067fb725f0817fU, 0xeeb7cffc2654a07fU, 0xe8ea7d5d655c1004U,
  0x468eec4d488152beU, 0x6e7f7f138110d36eU, 0xa2e230b4141e9a0fU, 0x1e59353536388f7fU,
  0xd26b4e6b532b184bU, 0x1bd275d58115c92fU, 0x892819ae2f2d711U, 0xc17fac71d449d581U,
  0x54f0aa7f0634b781U, 0x818e77468481813aU, 0x493322cb8116d2eaU, 0xbc4f6798d36ad44eU,
  0x56a75ec4e2dab83bU, 0x4323def1a0231c33U, 0x246208c2603ea0fdU, 0xc46d324e2081fd50U,
  0x0U, 0x0U, 0x0U, 0x0U,
  0x0U, 0x0U, 0x0U, 0x0U,
  0x0U, 0x0U, 0x0U, 0x0U,
  0x0U, 0x0U, 0x0U, 0x0U,
  0x0U, 0x0U, 0x0U, 0x0U,
  0x0U, 0x0U, 0x0U, 0x0U,
  0x0U, 0x0U, 0x0U, 0x0U,
  0x0U, 0x0U, 0x0U, 0x0U,
  0x4da5a6e1b0e83e6cU, 0x5d9af4fb3df4d3bbU, 0xd90212bc6cb40404U, 0x16ed01c32aa2c49eU,
  0x2037157f5b9ff73fU, 0xb48f737fd565ca43U, 0xe95f77d26f3cfc10U, 0x5c653cc7413d2f71U,
  0x1a82b3cfd42eb3f9U, 0x69819e8e359e8614U, 0x2f74d7c97a9de5daU, 0xc295ec6f38bd7b61U,
  0x16491c62a753dd3aU, 0xc4a436d410e36608U, 0xd745242f3bc68f9eU, 0xb0208faa0d8a688aU,
  0x1a9a81973aee1a71U, 0xd27713e73ea261b8U, 0xf771819f49819916U, 0x643c091e4dc62ab8U,
  0x3b4a4645e4981baaU, 0x7252f723a243f8b4U, 0xbec5ea651f53fa96U, 0xb46b2a0ca7ee4cdfU,
  0xe42d0bc6275bb54bU, 0x2aadc694fc2b287fU, 0x7bc709aa0e8bd5c3U, 0xb4a17cc6981ce5cdU,
  0xde76cf834a58307dU, 0x874f6a48676819d3U, 0xaa553296b8fe3ecU, 0x7ae66a12ba362ae0U,
  0x1a2e3b95e8a76d23U, 0x70c8789ed8b7b921U, 0xcff088f2907ad799U, 0x91d24a354dcb1b66U,
  0xcbe0557e9c93bb43U, 0xd42c1f563e6a0d6U, 0x3b207f3c9e9d68a6U, 0xcdbf36462fa0c65aU,
  0xad043d268a7f441dU, 0x671c15f6d0a382adU, 0x6fa98a46a290cc1bU, 0x4117e084cd6c9b57U,
  0xbc27dd526362d931U, 0x69fe5095e66b1665U, 0x6956af858d40b1f8U, 0xf37d3ec87d236acdU,
  0xf9c12f06ad68a502U, 0x265e82a3b42f2c8eU, 0x9c9a5bdccf7210b1U, 0x7dd12ebe4bf06584U,
  0xd523f6fb91f2972eU, 0xf2b20af70d1e9a17U, 0x618821a469ba324dU, 0x239261cf9b7fa5c3U,
  0x7be2a519b8d70da1U, 0x3c343f1d047baf48U, 0xff309517e28fb9e8U, 0xbf349ca596ecf7e8U,
  0xcad7cd6c08e1a6ecU, 0x47978772c8af8209U, 0xcd3576bb2c75bba2U, 0x7781bb13fcbdbd3fU,
  0xc5d2b62ce784e29dU, 0x66bbb4a604be19beU, 0x112c8170a8ebbefbU, 0x57dd8b6b42e506faU,
  0xb3384b71da62cceeU, 0xdc7ad52e97ed0aa4U, 0x36be0ec97ff41b40U, 0xff0966cf5884cac0U,
  0x12b865b156af29b4U, 0xb417e3ab2f71e700U, 0xce6811633f3da9e8U, 0x309c7fd048eeeb4fU,
  0xe05d10de348c9591U, 0x883ace4c0d3fbe1fU, 0x377375a275552f1aU, 0x6414d282d6af22aU,
  0x2f39a4238a6e58cdU, 0x5970c8642ae23a89U, 0xa7af1a4bbc35636cU, 0x1150166466746d58U,
  0xa114fbd66cb41079U, 0xedc8a077f630cce4U, 0x4fc420f9237b2411U, 0x61175ea87f6769fdU,
  0x8772a3f5c38bcfa6U, 0x4d86077ce3d1cc30U, 0x68d60ff8f9636928U, 0x396ea6d9333557edU,
  0xe38a13cbf8c400c1U, 0x2e15534cad08d900U, 0xf2302f1b52434e55U, 0x63a47f27d1a15fd6U,
  0x4b3772216e37efa0U, 0x7fb74bf7f7479938U, 0xc922a204df2c0ea5U, 0x8f3999265c6f1bd4U,
  0x1c8492e0cca4b909U, 0x3f89c3aa83ad3adcU, 0x1cc5a1923ad7f9fbU, 0x11de0d1f6834d5e4U,
  0x175d0fe17fa0843fU, 0xdbcc0a7b118cd18aU, 0x2dc2f5f88a9b5615U, 0x9e45a545c6259a81U,
  0x917643959bb17af1U, 0x32a8fefb4f7dfb47U, 0x95ff188e125d66b3U, 0x6cdcd9a78c0ecffeU,
  0xe91156b621f38333U, 0x6ad0e415327eb128U, 0x3948425dabd3be3aU, 0x3bd3dd3458569fd8U,
  0xa56f8fbf7f23085aU, 0xc296a6098e3a211eU, 0x3a5b22005bfcb6e6U, 0x13ca031ed515d497U,
  0x29c0fe853c0baa7U, 0xd403c4b67ae128fcU, 0xe77f9123f065dd4bU, 0x26347e4d7a65f30dU,
  0x9cf5269f1939cbd0U, 0xe784ee24d111a8e8U, 0xab564c73c9985b9aU, 0x9e4f30cb2a78979fU,
  0x2f957b6e4ed0a07eU, 0x15c14d89fc3ac414U, 0xf160dcbc54b1672cU, 0xfcb10ad9c7687e0bU,
  0x7a545e8db6304d26U, 0xcbfd6e7d84d05109U, 0xe1a2a0359c1130e0U, 0x712981951e764b46U,
  0x9a5b7963c0590870U, 0x175fa000b566f9f5U, 0x202ac9d27196830eU, 0xabdd811311b84b5aU,
  0x9097004683908bdfU, 0x4bec1325ef7fe6cfU, 0x95f74c50968e46ebU, 0x4a2169e07d887701U,
  0x742c96aa92efc792U, 0x650013503ed9ba71U, 0x356f5e7c15aeff26U, 0x6f5321f415a86c0fU,
  0xc3e2326db081b63fU, 0xbab137abf1bbc85fU, 0x75e743974430d3a9U, 0x7e1f309a9004d4eeU,
  0x2fcd9a43d6dc41afU, 0xa6816caebaae2f8cU, 0x7f6ce4a47dca345fU, 0xf8f2ff1f61447d1bU,
  0x63ff5a940b0e7b6eU, 0x9378e91e91031f5bU, 0x8f7970104cee576fU, 0x7df298c0061a8975U,
  0x790b4735f6bf931eU, 0x7eda6a0a951779a9U, 0x186742b4a444a75aU, 0xd517b452796a2c73U,
  0x843828c52af6f75eU, 0x2de7860f0e94b072U, 0xb881e2b4bc4aaaa7U, 0xcd52cb770b260891U,
  0xc8e7cbb565a2d695U, 0x148ca7a92e891baU, 0x2ab6b5817b50cec5U, 0x4b473736f62c4ba8U,
  0x26cfb67df05033b4U, 0x2deff3c6175b35fdU, 0x119efa0c4552887aU, 0x3b6b5cdfdee70fadU,
  0x94b693e43125c604U, 0xcdde8d85d9fbbb96U, 0x6979d8fb97ecb939U, 0x1cd9f585c52b1b02U,
  0x6035ddf59fba1f8U, 0x1b6ac4c87747719U, 0x2f6eb164ced9dc51U, 0xc866ac0e81548382U,
  0xd7eaac857ce668c9U, 0xb76960fd0ed32863U, 0x8d4b57a9d4493969U, 0x7d170c4759d7f659U,
  0x3d6d32ac4ad3a0e0U, 0xae9eca305fd4a7fU, 0xe35774f5038f47a2U, 0x1a29bbc175571f47U,
  0x70ec4d19fc7cc238U, 0x2f20c9822cc3ac98U, 0x8de20ee06ffd27c0U, 0x93c7305d4e9e9ba5U,
  0xc1ea7f2a6f75ff2fU, 0xb78e669a4bd99bdcU, 0xf7bfbc3a2468bcdU, 0x32e30eebe413925eU,
  0x616f6704b8306962U, 0x5b05ff055e0d48e0U, 0x9e497e0811f5172aU, 0x23a20bff6304e9fbU,
  0x7f1ddff2e1f660ffU, 0xefb03877c00c450cU, 0x965198729f38a831U, 0xfd5d79d3c6615644U,
  0xf8507517c02eb9aaU, 0x9abd0040d9cda72U, 0x6b17c17e6f5cba45U, 0x4a62ee1ebbd3d5c3U,
  0x45b9f5ecb74c904bU, 0x565b1007506a59e7U, 0xf6aab241bab7da23U, 0x8f891e813242b237U,
  0x16bb0b44c194e5f0U, 0x79c55fd381f6a78eU, 0x2e77b6706c0f63b9U, 0x8250d3ca9b2f5f3dU,
  0xcf322fe610403df7U, 0xd12048f53bedbd21U, 0x323a50f06d92f3cbU, 0x4538cc7d7f7394c0U,
  0xe73000b32bcb8c20U, 0xe45efede70d349caU, 0xc653fdd2df425738U, 0xe27da4fd8a766795U,
  0x69019dca5d6c1242U, 0x2de7c5a82d8ad5caU, 0xb99ff4a9769daa30U, 0xcef7497ff76f95e0U,
  0x28774851498ade96U, 0xd369d4f670c37c3cU, 0x39eda487cda33d3dU, 0x2a371564a9183c5dU,
  0xadaa60965381cd1cU, 0x3d17a8a94475953aU, 0xa195192acadf409cU, 0x1844e4cfbe226c84U,
  0xc3d35107e6323e51U, 0x83e45b1d92c0290aU, 0xe3107bb311a9f747U, 0x6e12afc66ec9b1fcU,
  0x12437f7ce48e9852U, 0x52f9649e1a0f06e6U, 0x9007febe2f5b48bdU, 0xd84408f274eb3bcU,
  0xb50958b38124522fU, 0xdc54ab7869a37841U, 0x9d8f46372da393adU, 0x61fadda5e68f33daU,
  0x8aa98f59dd611428U, 0x15215bc0b58a53f4U, 0x3824f0d135baba72U, 0x19dd9493b46a7c97U,
  0xb6e0991c5df78da8U, 0xb0a6af28cc1285fU, 0xe53f14c8c6ba726eU, 0xaec87bba9f0ee052U,
  0x7f07c1569cfcae3aU, 0xe4ad06e96a58e6d1U, 0xa89b1a8fb2fdcd2dU, 0xee9a3c42db0b4a74U,
  0x9e834ce01d32952bU, 0x9b4d6f812437298eU, 0xc531f84a11beae41U, 0x2bbaa7d5005bf535U,
  0x16926765dd465cebU, 0xf44b646e97751c21U, 0xb10a8ef25049251bU, 0x61b2641190200b7cU,
  0x973af9a5c5eaca9bU, 0x112a71a00f72af28U, 0x17d7c0df79dcde9eU, 0xa67b354adf50d46eU,
  0x13c0c433fe6b59f5U, 0x458c95310c57436eU, 0xcf4796e052501d3U, 0xcf8b080b7861757fU,
  0xc4a1b8039b638262U, 0x5b914448e6c4c684U, 0x6cd5b22cac43f501U, 0x7d10e2b090274035U,
  0x9563d5c2a752ab7aU, 0x82b6d002c23f451eU, 0x1ac27fdcfda2cc5aU, 0x25f3e2e727d715f8U,
  0x31643452e5358b5bU, 0x62ce0c1597951e26U, 0x256e6b4e2f95ffefU, 0x432a099616245e20U,
  0xeb9351b0bec61cd4U, 0x14cfe0de29e0b324U, 0xcba7dec66c40c46dU, 0x81f0b4105ac363e2U,
  0x58202b4146020df9U, 0x9ec437a64dab735eU, 0x5d2cd2ec7118a106U, 0x6ca9aaf00c201250U,
  0x8a467d796d50cf2eU, 0xf556163ac9b7ff70U, 0xc57c03257f51a108U, 0xbf4c320b7522e6deU,
  0x35bb9a8a9f985241U, 0xa4d0d11f5b07ab30U, 0x7032415b83b3bc9bU, 0x60e2a7ebb14e0828U,
  0x695fec32c991bda7U, 0xc7c2ece681b64ca0U, 0xae0e1c5d68bdd43fU, 0x65ecbeed57ade522U,
  0x5449365d358db10eU, 0xbeb84abe3320e8e5U, 0x8d6d67d3bcf5d981U, 0x56760d5ba2fe31baU,
  0xc8848199c4e481b8U, 0x96714930aa60d776U, 0xf1ff46c034e42c35U, 0xd6ef8771f4bbefcaU,
  0x87269cc810c9b47fU, 0x289b3c751a0c9ccaU, 0x8c0a810050237666U, 0xa5bbb1cb7064e951U,
  0xdfcf3b6a9c1f1033U, 0xbd82ff188a0228a1U, 0x62cefeaa14165c93U, 0x1dbf98ab0800509aU,
  0x6e485e71d203d314U, 0xc75793c9edc92301U, 0xd26534eda8e0ce7U, 0xc166c1297f67c44fU,
  0x82c6b637257b011U, 0x5b3fb6628a650569U, 0xf3a1d9bc6fbb0bd6U, 0x11b4ac33496ed5fdU,
  0x5458269f0b1d366U, 0xfda941fb64282cd4U, 0xf0a4675397002d16U, 0x706dedc4b7f3f24bU,
  0xf21f31ec5284e266U, 0x49f94903b0665d81U, 0xb48ec3af0e92a05fU, 0x4ee974e7cfd2da07U,
  0x10cc997ffb14b9daU, 0x38029d027a05f382U, 0x8faaf812f3d9918U, 0x7afd5fde579ce744U,
  0x51d32f6a0fb1b130U, 0xb3a06e9eb6477395U, 0x2706880a7f73e7fcU, 0x7ff3556f753e0289U,
  0x5dd50818720b6cfaU, 0x83bfbc3c3953745dU, 0x8457ecd9f801afa7U, 0xe6e1f05d81627d72U,
  0x961b7459defabfcU, 0xe84de0142bc05b13U, 0xbac8487c6cda75d9U, 0x794ea6ea431252bdU,
  0xd264eb81b43da3ebU, 0x3f1ade3cc4e951dbU, 0xa7ef14b797b3888bU, 0x148dc1074c595e2eU,
  0xdd3541ef9378b123U, 0x2e5f8232a12f7914U, 0xe5587e5ca260753aU, 0xbda1269e2c9b8e8cU,
  0x3286fd5d53579715U, 0xb5659c563af87f3cU, 0x8e9bfc0c1f701b27U, 0xd7779c52339497dcU,
  0x451cc2422a6b351bU, 0x104440d51858e23fU, 0x1b00f0b8267c8bfdU, 0xd2a19ab63a05afc2U,
  0x562294a7147d3297U, 0xac441fac9ff7456eU, 0xe22e4612043c6692U, 0xa8a3c4e86731b425U,
  0xf9f1aff7efb031fU, 0xe59cab9944fb0730U, 0x93f10bc4d4447dbfU, 0x7ff4586367ef7d5dU,
  0xe3150d552513fc82U, 0x6e64e46ea55a4934U, 0x3e99a406738ac43bU, 0x130aa8357323e2deU,
  0x4d5169d9d6064c1fU, 0xd4eb71606ed94eddU, 0x75f3c95d3dbc09U, 0x3837eb81d420036cU,
  0x9225e7a562f12daeU, 0x5c5f1bb645693ab8U, 0x108389ebf28505f9U, 0xe0333244e707a522U,
  0x562590335725c5e1U, 0xc008555f5b6fcb14U, 0xae157f3125ea262aU, 0xc590cfe28d53b8a6U,
  0x3ff028ac43d362a7U, 0xb471ae9d70acd2a3U, 0x1aa31e4b68a350eaU, 0x1d6a79d7940fea6cU,
  0x79d456acb15c8568U, 0xb1db6e6307ab8177U, 0x13ec2ec840aba858U, 0xf85a957ffb316a50U,
  0x5fd42c3514b25e6aU, 0x845ea88c400536ebU, 0xb353a5360751571eU, 0x6220e16e8ff38bfeU,
  0x4c213bf022a6dbdbU, 0xc2957d3084695060U, 0x852d19fd3aa00f45U, 0xf3849dcc175c81fcU,
  0x9e83315f346f4e9bU, 0xb2e49b3028fb116cU, 0xe72107c0b1b596d4U, 0x8b7f49c8cab82298U,
  0x84a94d984befa648U, 0x33dcdc82a4a0f875U, 0x8e5ac42d6453a917U, 0xb7597581986f05eeU,
  0xc6db660559699981U, 0x2c822a03ddc5b8e3U, 0x4357fa406ab79a51U, 0x8c3ea25699930fb7U,
  0x9a4a89cfcbf71a5dU, 0xcf7abecf94427f7aU, 0x3273ad2f72e32e31U, 0x3f9c5f46aa0fdb11U,
  0x4c95229fc9f950f6U, 0x3382d0557a5c4425U, 0x55558a602dd7d3a2U, 0x6979ff3ce2fada5aU,
  0xe710f96ce6db30ecU, 0x3585b5846ea5fa89U, 0x1887f4534e96704U, 0xa23b9664591d0347U,
  0x92282428b9104398U, 0xd01feac04bd4cfddU, 0x2f082d666accc7a0U, 0x942993e1cc22ccafU,
  0xe73e9b69b405ae11U, 0x81487a518861b7d7U, 0xec3e49648abf5955U, 0x91666f1633b90ce6U,
  0x65025601d6ac6d33U, 0xc83f65091b6d759fU, 0x1f4d978110c22b2dU, 0xd00f7019dc69b0afU,
  0x73451b0c6f12940dU, 0x57dd27db8562dd7eU, 0x7ec2972305ff558U, 0xdf871f37d74e4291U,
  0xc316011648799a28U, 0x8c60c6066729bf30U, 0xe0bb070b66fd4e00U, 0x8ea4d6d87f362879U,
  0x72a1e17721425ff2U, 0xe4b8c3d3c406ac63U, 0xb54c9c7a97a8f53dU, 0xdccc73006882edfaU,
  0x56786d851c5333a8U, 0xf145fb7eb5b0c723U, 0x8c8d258b8b810c51U, 0x979c23752874e11U,
  0x6128268413366a54U, 0xbfe8c8b3094c7049U, 0xa62b1643b4176a6bU, 0x9f4d4a740513fd15U,
  0x2769dc8d8e812f91U, 0xbe9998de67165d1U, 0x94e0dc1a41f31fbeU, 0xada286146590ebfcU,
  0xe67f510f3e282a66U, 0xc6d7bc6020ad5d5fU, 0x1cf40dbe047d40caU, 0xe5bf46927dd2cf48U,
  0x7d055e7f28e94ee8U, 0xe7275202e5cf0815U, 0xff2f65da0c8f462bU, 0x6f328d0b9e595c98U,
  0xef35993cac4b487bU, 0x436cb42136331ec3U, 0xdb1e3a929bcdec9eU, 0x126de2ecee9ce589U,
  0xc2156c1f6c9d536dU, 0xd1168119706ef3fdU, 0x25f0fa5baf066dc6U, 0xdfd41335c7312a04U,
  0x3182243c2deebd4bU, 0xb782da9c79e9e26fU, 0x7b4dbea473e97952U, 0x92b18e7159bf57fcU,
  0x9181df6a83b063f9U, 0xdc2d17220d776d6U, 0x3e1f731c20bfd07U, 0x8d64a1bcf1e3beb4U,
  0xd87af475f5ffa9faU, 0x842ce3f99fb2547aU, 0xf8e706ba97174acU, 0x21498b40876ce6ddU,
  0x6caf211b06591d0eU, 0x778741d68222bc7fU, 0x6114064738a26c8dU, 0xf1190dc2148d3ab8U,
  0x8e86f923a8a7b505U, 0xa3899bdaef673739U, 0x1c9381214685b2a1U, 0xd972c62a86330535U,
  0x81f7e1e6e834c576U, 0x48cda7dd1f7cb5dfU, 0xa9692ef6af50ddf0U, 0x1b8b1a044b6cc128U,
  0x52283af6750cbcfU, 0x849835df2ffba560U, 0x8661fbfadb5ffd85U, 0x9c8f398be4c22d90U,
  0xe877de56217ac6daU, 0xa57f16c6b2b9a926U, 0xda2e739a7d8b17a0U, 0x8d039622a22111bcU,
  0x235163c631fc8428U, 0x11aab403da8eba7U, 0x8f0be30ae3d028f9U, 0x8633014b727355afU,
  0x505ce7b1bb1eebd3U, 0x1170a867a39a8b4aU, 0xa2076664793508d2U, 0x15869842387bcf1aU,
  0x87406a7f950bc3a8U, 0x8192656265bd433U, 0x8791f8d5d66e5631U, 0xb323a28b54df6b70U,
  0xd4d18a480847ceabU, 0x3c399d9b92ede3bdU, 0xe046a10d3b92ec47U, 0x82dad5b8be671d4cU,
  0x9e3bf9177c4efc43U, 0xc3091d8947e1266cU, 0x9171f0ee767fdfa8U, 0x2796afdb128b5620U,
  0x2913be852eeceb5aU, 0xa057e3c262c3afd5U, 0x22cc60f0cddaa6fcU, 0x16c3217ac02912d0U,
  0x8bba654fcca5027cU, 0x5c0bfa25ece36af6U, 0xa673b4d293095aa4U, 0x84123e5f7f030fc0U,
  0x1eeef035acdbd811U, 0x181b446df636aa91U, 0x5c81eed689ccfbaaU, 0xf9789b2d12c9050bU,
  0x23d53e5416b33123U, 0x784f91f8bf16e16dU, 0x7c951c2ff7266a8aU, 0x3bb6d58b0dbe566dU,
  0x32da51816e72206cU, 0x3614dfb7d9160eafU, 0x970da829f33c2e91U, 0x74a5d12dec8d6d3dU,
  0x11f1d20fef7615e6U, 0x3022a414948907aeU, 0x92c6dbbf301eeeafU, 0x57a93f5c4f864665U,
  0xb84a1944563d1c4cU, 0x14c3915c5b347da5U, 0xb5d2fd8481551389U, 0x4862ba9384d3734cU,
  0xd534fbfe020d4d71U, 0x65464185f08b2fe7U, 0x67c38d99fdd846bfU, 0x1f432cc37bddb8f4U,
  0xd99b59a6a8d6a245U, 0xf55693522c74940eU, 0xf9e37afb6735333U, 0x91329138bdd64c68U,
  0xc3c81dc18af4a63bU, 0x317656a18ff4302cU, 0x7b0b3bd944a7a336U, 0xb081946f287e20ceU,
  0x413815731fb18f60U, 0x989b1098bc83bb21U, 0xdb59b27fb1609ea1U, 0x5076e790dc15f528U,
  0x9ccf412848b3f3cdU, 0x8b57cfdc83bf13e1U, 0x3e6624b5f1442308U, 0xc4e6abc1cc214cf5U,
  0x3cd45d9427cc9cd9U, 0xeb8f20bf6dc06428U, 0x1b59658d7f7bded1U, 0x5217fa3193e4053fU,
  0xd741f8fe26b2519bU, 0x5d16b6027eae33ddU, 0x2dfa0f0218876f51U, 0x74ec6ff195b3bdeU,
  0x7f5cf689282cc120U, 0x5ca5ac04c017c8b8U, 0x6a58acfd5c30fdc6U, 0x665f013076011e2fU,
  0xd223260d6106f1c9U, 0x17641bed52c2b5ffU, 0x99109465475bc40eU, 0x44c05f2ba6cd13d5U,
  0x9387e1cc2650c8d8U, 0xf71627f9b4a019ceU, 0x61837235d9ddc7eU, 0xd9ba71f142008f14U,
  0xed6431f8de05c299U, 0x9571ea52ac4d7c3eU, 0xdda4e9d7917abe06U, 0x4ef894a18158e8f3U,
  0xe9eb241144dc1a31U, 0x4d2e5f860d662e74U, 0x1ede7aad6c40e822U, 0x6061f8dc8ca94ed5U,
  0xeb55281ae5752cd8U, 0xec75d1ac9ba50a34U, 0x1d90f1fc49996510U, 0xe71cd5d881b3f86cU,
  0x28f64ab84c0f7e20U, 0x46c9b29b51a15bbfU, 0x8f4f5ea0c799fa81U, 0xea1d592a31d32fb3U,
  0x8bb0ab3a85a2dc1eU, 0xc5ef7dc4555e736fU, 0x8a59ec1e45442b49U, 0xfa15f0c85d11b88U,
  0xb972ebfbfd5fe666U, 0x1bf767641f670116U, 0xe97bed43c9a2783aU, 0x22eb617e056d4653U,
  0x9373b824818ea1bcU, 0x114e4df1fb71e1f0U, 0xcc667461bab382d9U, 0x346967a61959ff27U,
  0x8c259929f507739U, 0xd4885ece4769f987U, 0xdc815f65e4ec9925U, 0x45282a8738040d66U,
  0x25d3cff644099e27U, 0xd112d03a857da2cbU, 0x602b1b2e66e6bd8U, 0x6163c5cf6ebda264U,
  0xc0bfc0f0978dfe68U, 0x9e46987b4e4abfccU, 0xd26ada293089440cU, 0x895c28bd0c86a8d6U,
  0xab27733ed9089294U, 0xe4d55bd8628487afU, 0x203721be8bb77f06U, 0xaa5afdea06fc3ac9U,
  0x12911fa5ed054e42U, 0xd9798a3176ca9fb2U, 0x619d607701faf8adU, 0x9e7dada6e1acf770U,
  0xd80dd67fd924a875U, 0x620208b61e91f0a9U, 0x882d28e7144dc29eU, 0x75baac564b242c7fU,
  0xd26b24003fc58b1U, 0x8e16da4fe5e412a9U, 0xae60167a9bb3426eU, 0x79c64e050421243cU,
  0x70192b7a4263c818U, 0x421183fc30fd3587U, 0x25c1bcf070477fd5U, 0xb7523dbc4dda47dbU,
  0x2fe4a19609818a3cU, 0x7f91c3f6c62a0760U, 0x7ae07b693c2a1a2U, 0xefbdce0ca2ab42d2U,
  0x8ef9a64f07d77d54U, 0x2603194248010d9dU, 0xcb77eb4edd167a8dU, 0x5d229a750016118U,
  0x5d822faaffe3293aU, 0xd6ca344d67137defU, 0x2fb638a06d3830ecU, 0xc3d564301c81ad79U,
  0xc3b30bcae16157ffU, 0xb08e794eede2cfebU, 0x7907f2ba7e3bc9b2U, 0x27aa4bacaa3db261U,
  0x84b7792de52fbb7U, 0xe89f7ce1291e7b68U, 0x724b77f47f90cce5U, 0xde82c2896c0ac014U,
  0x466486fa87fb516aU, 0x71c9dce4e80dc4b8U, 0x81b3b271ead6a7ddU, 0x81cb5efbaa3165dfU,
  0xa68f9d92060af089U, 0x3cfce5c9272c25a5U, 0x6567eff63856d24aU, 0x41f1f9d8d9acac31U,
  0x9c4d3196fb035b1eU, 0x61dc5d8414218cU, 0x14f5b0babd7c3444U, 0x5982d11e97a5bb7fU,
  0xfb3b0eae0529cd86U, 0xc574fb5745263ad4U, 0x70f70bf84e92eab8U, 0x8e1cecf0d83e2fa9U,
  0xcaa6788f0525015eU, 0x2319fa5719c23793U, 0x646cce18d3d7813dU, 0x6d9c0a36b59262b8U,
  0xf839e050be8ee572U, 0xc6e912e586ea6847U, 0xa2c5e5720809a02dU, 0xa7422810cb3d3f64U,
  0x2a7f9e777bb58f73U, 0xdaed410d1c65067bU, 0xfb85b337c69aecbdU, 0xa7d1749e84f5d432U,
  0x5f9e688663b66366U, 0xaea0f4d627ba7b1eU, 0x67451c10dce08dbfU, 0x8c0737ba4b8a2691U,
  0x67488f0cd501d4a5U, 0x9a981779a077adcU, 0xf9cb3983a74b8da7U, 0x5b1b5043489957ffU,
  0x6f4b6809126bdc0cU, 0x5df2ed40c84fe6f4U, 0x9a968aa22c0dbf42U, 0xad223099182f3a7fU,
  0xaf55310f8f0c6fbcU, 0x2a8f3268a7df8cd7U, 0x942de39a8162455cU, 0x5dff79abd2bd2812U,
  0x4d68d4ec1d895cU, 0xa8cabbfc68014ec9U, 0xa7072aae3bc7da45U, 0x19caf87f06bb6701U,
  0x251939be2b12bd8aU, 0xced89e978f121182U, 0x9126c20040c10ef2U, 0xb46eb99bac11c18fU,
  0x3ff78920817f7be0U, 0x9a40426cc7e17958U, 0x9c8e3a96d74be7cdU, 0x3fbe211d6e366cb9U,
  0x676aa486d21515f4U, 0x3a460757d67f817eU, 0x55f867d238660909U, 0x8324469c6b20dd81U,
  0x1946230030b1f293U, 0x8130f0fe20c2b256U, 0xeb9964145877322U, 0x7760a754ecb40077U,
  0xbf717a2c44da03c6U, 0xe08f913fbe717155U, 0xf09676015cd74cbU, 0x2f1c7abb56eab942U,
  0x83bb1ba9a52e4ddcU, 0xfeac154b4b654b0bU, 0x30ffbb5447d2cf94U, 0xc3e659137736ea1aU,
  0x184616295ad0fbb7U, 0xaa68ab3c1fc07ff6U, 0x614c212f3bc144fcU, 0x275216f5b60a092dU,
  0x0U, 0x0U, 0x0U, 0x0U,
  0x0U, 0x0U, 0x0U, 0x0U,
  0x0U, 0x0U, 0x0U, 0x0U,
  0x0U, 0x0U, 0x0U, 0x0U,
  0x0U, 0x0U, 0x0U, 0x0U,
  0x0U, 0x0U, 0x0U, 0x0U,
  0x0U, 0x0U, 0x0U, 0x0U,
  0x0U, 0x0U, 0x0U, 0x0U,
  0x0U, 0x0U, 0x0U, 0x0U,
  0x0U, 0x0U, 0x0U, 0x0U,
  0x0U, 0x0U, 0x0U, 0x0U,
  0x0U, 0x0U, 0x0U, 0x0U,
  0xc3daa8e5407845ecU, 0xe5ccd7aa1a99026eU, 0xcfea84d215265df1U, 0x239e8cfe669c1081U,
  0xa302fcddf1f71b1fU, 0xae981cdf8a6bf563U, 0x216e4e2e887dccf2U, 0x8bb7d57f51e4ca0cU,
  0x95792cfadb9d9c31U, 0x71c0ae0c7b73c5acU, 0x598666b1237ecfe5U, 0x56fbb6dfd0590158U,
  0x851e302d09b9cfe3U, 0xc3a59fe66b2b42d1U, 0x315f43d3cbae9b59U, 0x5d035787b201cbb9U,
  0xfe7492c84fb87fa4U, 0x128d7324edfd5d27U, 0xe69fa717be2c91f2U, 0xd24f38cedaeba072U,
  0xfb621b9a19d5b27aU, 0x86e6e4af34ea56c2U, 0xb025e725b1550b09U, 0x8e7ebed71fbd7d06U,
  0x1c1f3b4b11f16f0eU, 0x3b2eaafb1ca7bc22U, 0x365e87ec8f0c8ea4U, 0x5fb99f6bbf64652dU,
  0xad838af84ac45f25U, 0x556f0521db79e319U, 0x2eb242f718dc60e9U, 0xf26a14814a716249U,
  0x88caa7364c357d26U, 0x42c245ff159707c1U, 0xab3c2482b9912996U, 0xe3c70d84bfd54c31U,
  0x2b040d6dc4707f4fU, 0xc070abc0ecd95a74U, 0x82d2043a52bb7611U, 0x46fdac833424aa03U,
  0x4427feea0da6f2d0U, 0x2d74821454bb2050U, 0x98a169f4437329b7U, 0xbf4f1e7c477ab065U,
  0x99b381d074f2063fU, 0x82999b4f83c69930U, 0x5d7a261be43dc5eeU, 0x81c2ed7bd4199afcU,
  0xd656c2bc0a86cacfU, 0x67b6847f47deeab3U, 0xedb9a52ec6550fa9U, 0x7c1bb51881b84f1bU,
  0x25aba896917bc3c0U, 0x2232682ae14e4422U, 0x3a36fd70d7fc2d9cU, 0x22d72e5bf11acdf2U,
  0x9b9a3e6b4fd19b0eU, 0x512124b3270e44c1U, 0x9eae89f4098e05e9U, 0x63ce3eacf5851d00U,
  0x8c1e48d34c794cc6U, 0x9b94586d05d147bcU, 0x5796b20b16e66e51U, 0x9935182dc149a76dU,
  0xcf352a9288d45dc0U, 0x3d336cff78f7ebafU, 0x4e94dd53eeaade78U, 0x7082de1849e56808U,
  0xb915eb6f9bceced3U, 0xa31224454dcbfa5bU, 0x2d4ea77f862ac949U, 0xbde41136f25742efU,
  0xa788f65bfcd01024U, 0xe286efdcde1140d0U, 0x82f8d43a7f1681dU, 0xe2992b881c44837eU,
  0xf35d84358b26cf09U, 0xed5f18254b1d08f8U, 0x7ced751566a9a659U, 0xbb917b98e9a999c0U,
  0xb581388230b5dcdaU, 0x57752ca88ffa0875U, 0x821fb73a91e5ebaaU, 0x98fd21358c88e6a4U,
  0xc79de343845d6d35U, 0x8a2e61c66357d99aU, 0x9c09a2173de51bd5U, 0x58e7f4c0f4c715eaU,
  0x415e64811a3d0489U, 0xb78785668d792562U, 0xa7cad265992a6d3dU, 0x81b7d4be2c613882U,
  0xe4b4737658a2377fU, 0xd0eccfb15120b48bU, 0x1dad705f9abf2aafU, 0x7f626b142232dd75U,
  0x3f8ac4c9718dfc60U, 0x5d651aa232e816c9U, 0xf4ed20e05a26d61dU, 0xf01b7c32012d9d7dU,
  0x23e6d9241ed7a59U, 0x2df69c43604be8faU, 0xb217dd9253b72cfdU, 0xa2f936906b1cd3cdU,
  0xee327f843b4e75a0U, 0xb8175c34d8e78825U, 0xc6b732020cb80637U, 0x73ad0b76172ffa03U,
  0x4199c7af5ccc6d88U, 0x9ed42a6b6de90d82U, 0xc52986c327ad17e3U, 0xe8d3cdcf73fd1fa7U,
  0x65067c9ae72ef48dU, 0x95c00eef750fbb6cU, 0xdc31a4e2aebd85U, 0x237fadfdb5c2e2ecU,
  0xf4a701d52a98de9eU, 0xcf3eef2d311db7b0U, 0x7b2a5f2c017f5c8dU, 0xcd826bc586d3f730U,
  0x3ad9b93ba492c418U, 0x35c61bb265d3c46eU, 0x93ca4da613b2e5b6U, 0xbd1ca0de5c81d036U,
  0xfd605a64ab951b97U, 0xf13ba325a25bdcbaU, 0xcb74e93e1930c411U, 0x7e8cff3cf6b20f14U,
  0x6f742013d9be77aaU, 0xdc5673d6c52a05eeU, 0x709de88f53dd8ca0U, 0xec6ee1cee77f666eU,
  0x627507f3472746e1U, 0xa715644db5ccb9e8U, 0x5a990c4da1b3812dU, 0x7eefa58bcddb9343U,
  0x25c9977624f32e18U, 0x4b7fd8b3ca0b8737U, 0x2478fd9be9d99118U, 0x37675d20dc1eca2bU,
  0x689e244a03161ec8U, 0x92d306bc0e0e9696U, 0xaac0bd85d7435e3aU, 0x255d7409edbd514dU,
  0xccade0bf73eaadd8U, 0x1a30a27f21f65acfU, 0x5e9fa3cee9c1dbe8U, 0x33ff9d1b9421bfbcU,
  0x91592a45914c03e6U, 0x37995000d0c7bf9eU, 0x2ce45d0517f5a76bU, 0x2dcc43c59fe9dbadU,
  0xf00c17129b481fc0U, 0x90e161aec25f5929U, 0x195d8f989459cb88U, 0x9cedfff90c8fbeccU,
  0x101969715bebd628U, 0xaf73c286cbd18395U, 0xc5d6ada88e202596U, 0x19d4bf255c174228U,
  0x1f295a2631d8d534U, 0x5e327e18dc7b18eaU, 0x93dc9f3c287411acU, 0xc3f3810de8668d67U,
  0xd5c94502cf1a7231U, 0x920429719c117414U, 0xf679563f345b853dU, 0x84e96048a7efbd37U,
  0x3aff35f54b0f4034U, 0x93b1b9d6a40d5bb5U, 0x2d5b5e1340e589ddU, 0x998ff6a3dea5405aU,
  0xa586c517f83974d3U, 0xd229bfad6f7fcfd7U, 0x279c6d0a5e593a59U, 0xc268b212e5c0e195U,
  0x7608d297d39e439aU, 0xeee37ffd86761ee3U, 0xb7e1f40ad93f1d8eU, 0x4fd7dd0a27c4b6ccU,
  0x789b694d4e92b4f7U, 0x9cdab29ba58bffceU, 0x7f8bbd8717ace98aU, 0x1caee5fa87e9df3fU,
  0xbb064ade12baf6e8U, 0xd113ecfe5b1d83b8U, 0x1095745b5b5d820U, 0xd86fab0532e61769U,
  0xbf76b65c2de12484U, 0x302af332f23a5425U, 0x84085d5e35a0ca3dU, 0xf079b9fa1e953ad1U,
  0xe3a571f8b876e996U, 0xd2b2557d0d5e554cU, 0xbaa69ad1ec6ef013U, 0x67d7d917b19f313eU,
  0xcf085045d97f2917U, 0x4e53608a662ea247U, 0xe31360dcb2e2edccU, 0xea228e3fccb772a7U,
  0x9e61ee1740416917U, 0x182d19bacd583490U, 0xbfa8e6bcb8ebc9b0U, 0x1a9778999ecee9baU,
  0xa33fac3fc3927d46U, 0x5d31a2fd6f035f5fU, 0x8353a339605b2351U, 0x272f1b62758a1fd5U,
  0xc39f6f6ddabe0c99U, 0x1f19c4e932cc24d9U, 0x97a885a242f02f8U, 0xdafcc656b23953b9U,
  0x8281468cb5741bb1U, 0xa68b5b6f8a3b7235U, 0x317e6df22a60cc13U, 0xbac033b03152e2d4U,
  0x4842932c3d676f3U, 0x940140d64f0b068fU, 0x6b3a7bd79bc13c56U, 0x3179921becb08205U,
  0x311abf0c2e5f8ca9U, 0x371ee03682b816cbU, 0x3205bed123fee322U, 0x14bffe33a76ab7eaU,
  0x3ee21401b7c63e53U, 0x5d863336d0612c2eU, 0x79f9627b389d39b5U, 0xfecb527048c581c8U,
  0x4eb57f70d865a12fU, 0x1817f2dba3a327cU, 0x1181ec94a143c45cU, 0xa8c1f60c34c21bc4U,
  0xc697693a7bb77d03U, 0x5eae7be1c75b088aU, 0x4ca42deeb0794ef5U, 0x9fcf7c39498ddb4cU,
  0x2386f773a1e2a1a4U, 0x14dd96d196055b74U, 0xef92e32115ecebd7U, 0xa2faf16f24eb000bU,
  0x7be594661264461dU, 0x537029bba64ef1a5U, 0x7391e7fd7fadf6a4U, 0x9611472d99572056U,
  0xf7da030a583c4fe8U, 0xbf28583bae13f704U, 0x7188fa7f8d4d3f99U, 0x202c6336f40fd38aU,
  0x96cfefe9675cff56U, 0x5cb00282b0bc6638U, 0xfcafd44c88e59cb6U, 0xe09bfc25895f082dU,
  0x217c88b44f8f5c76U, 0xe161228bc7a1668aU, 0xe0777b056835eecfU, 0x4b912fb7ef7f6d70U,
  0xa6981a8f54ab3f23U, 0x69534e8a0fcc883dU, 0x32ec65d9d2fdac9cU, 0x8c7288efbcaf81c2U,
  0x5ae8e7e7a962faa6U, 0x4160661f746ee466U, 0xdd0fc7db5e7a7b2aU, 0xecc09c2661975777U,
  0xeb9a535adf427568U, 0xfc0dd52c9d5cb19dU, 0xc9b5c3b1cabcfbe8U, 0xd91fe6220fd0c75fU,
  0xf496db81041c45d3U, 0xa8f790e984f04c1dU, 0xb9a57830ebf50712U, 0xcf3212521e6bd9f2U,
  0x9bcbdd02af6f195eU, 0x7b22abb4ca0a85daU, 0x3660612eeee0a3e5U, 0x587e169bc73ac2ebU,
  0xe530c1432706ebb4U, 0x43f4fb9230c4a8eaU, 0x6c8c12da114cda03U, 0x6cb954a6fadea5f4U,
  0xfbf7491d6a8f4703U, 0x1f4aa03b82d15fd3U, 0x937ff7619ef04ec3U, 0x4df2539cca87cdeeU,
  0xb0f20c41d825936U, 0xaebc7a7a2696b029U, 0x1b98e59cb9b9db7eU, 0x45fdd4151bdff956U,
  0x697524a95615811aU, 0xed4cc6b585ced43U, 0xf6524c5622d0c399U, 0x9c388cd111cba587U,
  0xb47e3737b04283cdU, 0x4f5aeb404075fe5aU, 0x99c55afcc0be5d76U, 0x59b8407baab02b5eU,
  0x41b35ecb68811d3bU, 0xd92dd7d55d287ea7U, 0x5579aa227bac7194U, 0x1bd2734d91b7e314U,
  0x1391b3c3d10ac432U, 0x56311638b30378baU, 0xf765f422d1435a92U, 0xd7922108f4657f5U,
  0x20f6789230161bb7U, 0xeb643ea8211f23b5U, 0x816147536a73e3c2U, 0x6bb42996b21704a6U,
  0xd78130862fc27f37U, 0x14e413f9e9322fe2U, 0x6357e87d74608754U, 0x2a7c117b9dd46b11U,
  0x440349f90da15612U, 0xf53d87f52534e7d6U, 0x33c7b117c967ee84U, 0xb2c65e02b4b40ba1U,
  0x3a1f8d20c2c0efb1U, 0x6e94f542cadfa50dU, 0x485ca5d269c1718cU, 0xe2a7fb6973d2baa1U,
  0x7d2c0f9e1b262581U, 0xd108624f371de93dU, 0x7c9511b35d475fa2U, 0xd94a3656ed9282acU,
  0xecfee8bfaed274cbU, 0x720fc4b1a9c1f539U, 0x63183790ed4cc1d7U, 0x3dc013abcfef3afdU,
  0x3d5e86f1c32343b0U, 0x4f90419d7e22e75cU, 0xffc82bdf364ea8b3U, 0x5a7f612511a4016dU,
  0xe41583ff22cdfd83U, 0x92a5c67dd92e9ca4U, 0x43abc86e3c6f11bcU, 0x90d70a4910d2cfddU,
  0x25596b2ca656b1b1U, 0xa4e244f02c9af6a6U, 0x656eb13bb9af8b5eU, 0x4751a7217581614aU,
  0x3785b36a8cad1f95U, 0x92ddd914a07fca08U, 0x548cde150812e652U, 0x1c18b2f1b9c41bc8U,
  0x74b8781933d63781U, 0xd8524de3459a97c3U, 0x577c0ee38c09b2bcU, 0xa1ba521b4715efd9U,
  0x3531c8ac118558f2U, 0xf92d99dcb8ada734U, 0xdaf52d5025e9461eU, 0x57fc1aa4ec1404f3U,
  0xeea5207c22f8afeaU, 0x8b7ce74952c1c44cU, 0xad3d2568d90e6c15U, 0x8669bd7fb354122eU,
  0x1a1d3cd44f4dd4ebU, 0x3ba7ce8552833963U, 0x216d25f6e08d67ebU, 0x9e3c7292b6bc464aU,
  0x573c49be484b6a63U, 0x981accd724cf2081U, 0xc8d7bf37cc142a6fU, 0x3ec1a3763a8e4e72U,
  0x1518a3b99fbfde99U, 0xa852872c0473a493U, 0x4fd94dd5871a3f2eU, 0x3aa41db20b48e199U,
  0x65326c54b5af6d4eU, 0x5266f66a210b9a7aU, 0x6d126498e2865ad9U, 0xc1afc3d9a90d20adU,
  0x8caae2aabaebccffU, 0x41123d8e4f8c3deeU, 0xaf57a8b8d16ae6cdU, 0x8345e6315cfb708U,
  0x1e920abba406a403U, 0x7968927f5a72100cU, 0x2ffdd96ab8e3518fU, 0xd3f8dd8d073edc9cU,
  0xdd26ce04b6b16d32U, 0x733d11c8fe11b990U, 0x290fec06346d3c12U, 0x39c2b3d46a9d85b8U,
  0x0U, 0x0U, 0x0U, 0x0U,
  0x0U, 0x0U, 0x0U, 0x0U,
  0x0U, 0x0U, 0x0U, 0x0U,
  0x0U, 0x0U, 0x0U, 0x0U,
  0xcc60f6b9a1bfb199U, 0x19629525886243b6U, 0xc8771c3765a1426cU, 0x27da7f7bf1320f32U,
  0x7ff0475cc1d45890U, 0xd766202470723244U, 0x94a92296bc106a12U, 0x9f14ef940dfa09deU,
  0x0U,
};


ai_handle g_network_weights_table[1 + 2] = {
  AI_HANDLE_PTR(AI_MAGIC_MARKER),
  AI_HANDLE_PTR(s_network_weights_array_u64),
  AI_HANDLE_PTR(AI_MAGIC_MARKER),
};

