/**
  ******************************************************************************
  * @file    network_data_params.c
  * @author  AST Embedded Analytics Research Platform
  * @date    2026-05-18T22:48:26+0300
  * @brief   AI Tool Automatic Code Generator for Embedded NN computing
  ******************************************************************************
  * Copyright (c) 2026 STMicroelectronics.
  * All rights reserved.
  *
  * This software is licensed under terms that can be found in the LICENSE file
  * in the root directory of this software component.
  * If no LICENSE file comes with this software, it is provided AS-IS.
  ******************************************************************************
  */

#include "network_data_params.h"


/**  Activations Section  ****************************************************/
ai_handle g_network_activations_table[1 + 2] = {
  AI_HANDLE_PTR(AI_MAGIC_MARKER),
  AI_HANDLE_PTR(NULL),
  AI_HANDLE_PTR(AI_MAGIC_MARKER),
};




/**  Weights Section  ********************************************************/
AI_ALIGNED(32)
const ai_u64 s_network_weights_array_u64[31709] = {
  0xd0f8818f24cf405cU, 0xcc7f79773415e9bdU, 0xb23f00835408bd32U, 0xe681dee2fa812d20U,
  0x81a5408c40f457a0U, 0x7f774f4648d08fa4U, 0x93292c9a6fd0ab3U, 0xaf66407181c2c098U,
  0xf85b7f19c21398b7U, 0x7e7feefb04c313ceU, 0xaff42b6f1f7f5c58U, 0x5081ac2caae64e73U,
  0xece4e9b3a85ad412U, 0xac7f531b6b687fc0U, 0x2d35ead28ed81c06U, 0x7f5781a5fd21ead0U,
  0x35bca5ff2141cc48U, 0x30c505e8810a0f8cU, 0xffff4c84fffff8d6U, 0x9a7fffffe73U,
  0x9850000a6d4U, 0x17d1ffff4e69U, 0xfffee7c2ffff8c9eU, 0xffffff09ffffebb8U,
  0x12f8ffffd3e8U, 0xffffdac1ffff709dU, 0xf705fffff119cd09U, 0x9f1e3fdaedcf9cbU,
  0xfbfe1d230322dd23U, 0xfbe6fd11e8e0dcecU, 0xf9fd0f13f2e8f9f9U, 0x1deee1f7de27020aU,
  0x4f8f3070208d007U, 0x7decbc2e6dae8e3U, 0xafbff14071ee107U, 0x5f9f2060fdcd5e4U,
  0x5ec06f8e503f9U, 0x12f4e0ecf01ffbf3U, 0x12fdc710f01a0708U, 0xf9dfee8111d6f0fcU,
  0x2104f2251311f111U, 0xfde7c8e212e6f114U, 0xdffc910fedb05f3U, 0x607f0aa1c190710U,
  0xdd10170981fd040cU, 0xf09aa10fb470d07U, 0xdf02a2a09a3615f0U, 0xde00cdf3f9021633U,
  0xfc0d9493babe27c1U, 0x16f79be11a021d33U, 0xfaffc1220c2016a9U, 0xca82d61e471f30U,
  0xc3209ecb250a1ad7U, 0xf3fb00cb1abd192dU, 0xe3fe93c931c31ab9U, 0xf2de1bbe19f73619U,
  0xfbf42f490f142af4U, 0xec37f856fc5ef8f3U, 0xb4234ef90a1925f1U, 0x829ec3ae3b92bebU,
  0xd51e5f9fcfdc12e7U, 0x1f2ac23201b12612U, 0xdfeef30a1b26edefU, 0xd71b9312dfb317ebU,
  0xd5f4dc18f525042dU, 0x2a121e15eb4e3014U, 0xf206a523df0803dcU, 0xf301e2e80c813e18U,
  0x28f910ada534281fU, 0xdb17feffe7b9250eU, 0x350d38fe925c22fdU, 0x29431f3de7474630U,
  0x1c204abba6f25207U, 0x1e500e2e048d4d3eU, 0x2a0bef3e4f56ec30U, 0xecc24cd224e8dcf4U,
  0x14fd0f2f1733fb20U, 0x1ecc22f21d3bdffbU, 0x39ee254d1b07f157U, 0x3e957f715a7e2f4U,
  0x6f204edf411e01aU, 0x18fd43ccd908d7fbU, 0xdf09d3e3fc34dd18U, 0x9c1eeecf237d9e8U,
  0xca025616eb2d1acdU, 0x4f36435f1b755c20U, 0x4f8f7e70717f508U, 0x17f10fbfd124e3e3U,
  0xdc0fbae70342eef8U, 0x14c3e0bce839ccb7U, 0xd3e41f14f92a2cdfU, 0x553b452f1b6c5729U,
  0x22f5ede6e40ce609U, 0xe1e7cddbfee4f0U, 0xffe1c0eff43de6e5U, 0xebaeece4fd14aadaU,
  0xe241f5dc4131e5U, 0x3b5f674b2e7f373bU, 0x4a04611409f2ef41U, 0xdc2ffc33c200eeddU,
  0xade391f0004bb13U, 0xf2e7ccfecbf9bdbcU, 0xf4fc4a4cf0d6d033U, 0x20edb613d64ccdc9U,
  0xfe080b232e1be608U, 0xe8cb13f116dee014U, 0xd803db2d131fd30bU, 0x8c700d123dec6ffU,
  0xf0f2ea321d0ce9f4U, 0x10b529f40f6fb2d9U, 0x911aed5cbf85cbeU, 0xd447cf0a4c1c5c58U,
  0x412928aafff3481U, 0xee18d8f13fc63a4aU, 0xe9fba395b1cd1386U, 0xf0bca193c1e2f1aU,
  0xd81c5bf71749308fU, 0xd1a2afb39f1badfeU, 0x8112b508cca237e0U, 0xf1ce33c8cfbd4513U,
  0xbcf6be08ec0ab4beU, 0x6103e0d214153e3bU, 0x84fc289f8734e1ecU, 0xecabaa82d620aaf5U,
  0x3bd8341bf7f1bceeU, 0xb3f9a68aeb10c017U, 0xdd23f5f9b74cad2fU, 0x1917c5ebe8a3b845U,
  0x2217a022c32a3017U, 0xfcfe3a32e31599b4U, 0xeace31ba1efffeebU, 0xdbb0b5b639cfc514U,
  0xc51f08fc57d79fbeU, 0xe3d0f3d9c92d181aU, 0xea13f0f6cf0a0cf0U, 0xef9e4ed104c290dU,
  0x600becdd52121e1U, 0x705e7dc15bc1331U, 0xb0897abd2d4ffdaU, 0xf7eae5c3fcd91b0eU,
  0xb90711faf5ea0af1U, 0x15051a0ffa3e1100U, 0xe21113e5fe0724f9U, 0xf61bf812f3b1232aU,
  0xf70406f3ffbafe02U, 0xe7f1ebf2ffd00c08U, 0x14f526040af008f4U, 0x2fca027f82aede4U,
  0xffff33e5111b060cU, 0xc0d9412d1d8f7f1U, 0x11f910cff4ceebf3U, 0xeef281ffd3bfece4U,
  0xe1f01f05e8000409U, 0xdef9c1adeeaf3caU, 0xdf01c5eacff203b9U, 0xcff211eb12f31b1fU,
  0x360c810122f91027U, 0x12dc1d9a4abe1d36U, 0x7061a04fb08c5f0U, 0xddd98ffee0ea8d1U,
  0xd7f80ed6a2f80aaaU, 0xf21fac31e8f611ffU, 0x260817defde52519U, 0xf81fe8022fe7263cU,
  0x36ecd706170ebfdfU, 0x1ba7d3b927eec1e2U, 0xedf21be3c5fffcc9U, 0xe90a1c07e9dcd6ddU,
  0xf7560de3f30e2eU, 0x113c002ce1b20ffdU, 0xedf915e6e70e0d08U, 0xd71dc417020e1e1aU,
  0xf2fcf4d9fce532dfU, 0xee2cef0b1b0c3923U, 0xf60ce7c4f6e320f3U, 0xfa1c0cf704f13b33U,
  0xee0703f7dcf401e6U, 0xe7d194f2efe4e6efU, 0xeffa19e8dade1de1U, 0xe9fc890eee0d0904U,
  0x16090cd5e1ee2003U, 0xfcfb81eae1db1315U, 0x23fa012c15efd9ebU, 0xe4e3fbe60fffc2e4U,
  0x7070ff402fdd101U, 0xedfa150b06fcd4cdU, 0x11021412f8f0d103U, 0x8fafafef7cae4dfU,
  0xdb10100c0cd7U, 0xed00cfeb2acf110bU, 0xfa08bffb0c2109eeU, 0x13f9f6fe27571e23U,
  0x13feb2fc1aee1eeaU, 0xdd0dfbdc1e261a32U, 0xfc110405ece80aecU, 0xece737071bbffe09U,
  0xf9fd09efef1a0c0aU, 0x1709031115430f19U, 0x300f7eeda1600U, 0xf9f9f30209d8120eU,
  0xf8f32c0ee9fddafbU, 0xdef3960bd1c9d6d8U, 0xec092af5092fe8feU, 0xfa038320c036eddcU,
  0xdafb16ff15e2f60aU, 0xf5fd81fbb0daf9d0U, 0xe172648e000bae1U, 0xdd2b3d3f9f632b8U,
  0x2cc9b00eec717fcU, 0xe8a1b63f03ea0892U, 0x371da214b035db08U, 0x9f0d4dc6c292992dU,
  0x394600301db51081U, 0x94ac1c18af5fb7e8U, 0x2d20aff6c4c2fdc5U, 0x1cbecbd9c5059306U,
  0xa020ddaa94e8afadU, 0x47ace41aaba835c5U, 0x47dfd1e2f96895c5U, 0x2cadbab7acc8eec0U,
  0x990723b7b26bd10cU, 0x44fe0520dc4be64eU, 0x3cdaf712f0f9b4e6U, 0x270125bb4d26b000U,
  0x1328f8bfe829f92fU, 0x310c1a06df0f23d6U, 0xf316f9fa0539ef9fU, 0xf8cc7fb2e5432507U,
  0xf42ab2bcd1d3e2f8U, 0xec29f60733d110faU, 0x3120f2d5265ed798U, 0x1e1414e82732d81eU,
  0xc717aece0837e6eaU, 0xd4f6ef1db2ccffcaU, 0xdf406adcf0217e1U, 0x2349f81554e73320U,
  0xddfabbce0c05dfcaU, 0xf63004ca0f050ffcU, 0x12fab00800ccaef0U, 0xdc1adcaba41abfe9U,
  0xeb2fecfa07f3a5efU, 0xfcf3edded009d1c6U, 0xce023605f6070c26U, 0xfdfef72602f919fdU,
  0xe6f527f3031d122fU, 0xe7184024faa60812U, 0xfbf42d0a00ce0614U, 0xfb1a11200ed71609U,
  0x1508ccfad8ef00abU, 0x3e201d83310fc23U, 0x1b00b0f0f02f06d9U, 0xece810d03aa70714U,
  0x1a10b3e801d304d7U, 0x3e942cd26e9f41fU, 0xb4062808eaf1fbfdU, 0xf701d913adf8f5dfU,
  0xe60018fc0125f915U, 0xec0bd60bba81f2daU, 0xd8072403f4d7ff10U, 0xf20fdf20b1e204d5U,
  0xe80701e2ff01f621U, 0xf03cf05defa0be6U, 0xebf9ef0cfe36f6e3U, 0x16cfdff6f73cf0f3U,
  0x350c81fe2d46ee17U, 0x11d12da92c15e307U, 0xfb03d7f005fcfe03U, 0x16f2c0dbe615f3e3U,
  0xe9061507d03500dbU, 0x24dffe11ec33fff5U, 0x140007eb07370622U, 0xfdff110116f802ffU,
  0x904e8e6fcffe10aU, 0x1cfde4df0016edddU, 0xe00b170de4360ad2U, 0x1e0fea180853fc00U,
  0x2805e8e70d2a170bU, 0x70be2fe1e081b01U, 0xc8be99159dcc2729U, 0xcbb5dcdca010f731U,
  0x2b23c5c2d3212e99U, 0x1cae2efd9605482fU, 0xf5f88ac5280e9841U, 0xa033f6a5fc2fb79bU,
  0xf82a11a8f1efa7efU, 0xf09eae5dd382544U, 0xa402ab991bfd0dc1U, 0xf23c40f015d1c02bU,
  0xfc142ed01a4d1681U, 0xbbd42a1dd8f6e9c0U, 0xe119a8dd9143e8b5U, 0x11214fb52ed8d145U,
  0xd3174f9c3ccecbccU, 0xa33405a7fcc1d9ceU, 0xac1514e201e601abU, 0x1bd0ddd821b3b512U,
  0x14ef2b1cfaf3e81aU, 0x11152525c4edf4dbU, 0x21fd3d1ff522e84fU, 0xeef32b06cb89e3ceU,
  0xfaf33d27f6d8d932U, 0x3f23129d7f8cfcfU, 0xf9fbd3172414f9d7U, 0x1eda1cd60de5f80bU,
  0x4fdb0142604f3fcU, 0xfedd12b43681ed20U, 0xeefbbf1111d7efe4U, 0xfee5f2e016ffe003U,
  0xf3fb09f0e5ff2fcaU, 0x2e23ba1b1a023820U, 0x1606e7d5d10831f9U, 0xe422db011f8e3327U,
  0x141005dde0e71cd0U, 0xa1df71e1507271bU, 0xfb0b4904090d0552U, 0xe7203e20900818e1U,
  0xddfb3d0cf0f5f322U, 0x20b3319a5bdf3e1U, 0xc7f75213dc0f1201U, 0xe90834319d2f02e8U,
  0xfdfafe2c2ef5f310U, 0xebe8f0fff601e2eaU, 0xe405f3171ceafbfeU, 0xffe9070adf89dbe2U,
  0xe0f1152b0a08ecfeU, 0xf9e90e19e139e7e3U, 0x3e1bb80806de17d0U, 0xf30409f171fc1737U,
  0x2f038bf514e109bfU, 0x120b24c867811d2eU, 0x22079af208e800a7U, 0xebf42be366f5003cU,
  0xd9e60ee802d0c606U, 0xdced521ad7b8cdcaU, 0xb8e800e3fed4cbfbU, 0xe3f87f09d9dbe4dcU,
  0xcfe525e0cda3d1f0U, 0x7f95a17f1f0deedU, 0x2ef716f5041101e5U, 0xd612e3071ec61712U,
  0x20fd12f005ea0506U, 0xee2406091af01606U, 0x8f31bfa13bcfb1eU, 0x19160a2b0be21afcU,
  0x2913c115fa0d25e2U, 0xf4d630ae36c90226U, 0x37ffb6011dfe20cdU, 0xae728ae33ef192aU,
  0x24f8c0fdfdb01194U, 0xcf03fc637241432U, 0xaf91350dacac1U, 0x61dc18f7157ffac2U,
  0x10ee91ae4f5e2e6U, 0x29f7e6cd12780f15U, 0x2ae5e5e2d908f2cfU, 0x1f2ce0b3fe3af10bU,
  0xf8ed050d49e9f9c3U, 0x41ca36f4d557e6c5U, 0xbff2fb28dd0de4daU, 0x19fbd8d1da64e81cU,
  0xd7e6dfd3dc06dcd4U, 0xf824d7d7d2180a12U, 0xeaf8030b35e9ec9eU, 0x4f0e04ff1f7edbcbU,
  0xf3fcfe13e4fcd2bfU, 0xdf60cdaef4c04fdU, 0xf901e8e0f60be4f0U, 0xf90becc3f11cfe0cU,
  0xecb1fc0e26e8c1d4U, 0x17ebaa31e620c9b3U, 0xff13dbeae3f7c704U, 0xcdaa462ab3c1b528U,
  0x3c34e2c0b71abfb4U, 0xbace4c1bf50417faU, 0xf83fefd427c4aaceU, 0x98d6a11bca3807b8U,
  0xe20aa0bec4ac0727U, 0xddc4cdc092c10f34U, 0xcd1ad1c80205d612U, 0xafd6dedb27b5b8eeU,
  0xdc012917a5cfb586U, 0x94e3e91a2715d2f6U, 0x46b681bda0efd433U, 0xe02faa49a20c5ebU,
  0xac1302a71a460bdfU, 0xcb2bc4c10018c2d2U, 0xf00109a4dfcca7c4U, 0xf1abd917dadbef31U,
  0xb0d4dcd8af1ed5e5U, 0x301db080350e31cU, 0x1634d7b61ff6d21bU, 0xd52cd4d7b902c1U,
  0xd33d17ffc6aae502U, 0xca16f7b80ff8f235U, 0xf3f0e5a0a60414d7U, 0xe7ed1d95f3efb6e6U,
  0xbcbed6fc81aaf98eU, 0xffc2ece1a53148d9U, 0x1a0f2dcde7c4edc8U, 0xbce618b998fbf3d2U,
  0x19edbfc6cbbbaec2U, 0xb172db412da2b9eU, 0xd604f2fc07c33f3cU, 0xf21b01a9badcccbaU,
  0xf414fbf0ceee19d1U, 0x1f19c7290e59330bU, 0xf20fedd80b2434d8U, 0xe539ce080fb23e1cU,
  0xf81c07d20abb4ae2U, 0xe74c17fcff063340U, 0xf1100303bcf712f2U, 0x20e536fd1147fe13U,
  0xf6ff0be2d60330e6U, 0xe112ec15048e2341U, 0x1b0e19e3d29d16f2U, 0xfcf6cf0300c32c38U,
  0xde02241de9b1b910U, 0xfdd4af0bc93bc6a5U, 0xc4fc313ee51bc811U, 0xf2db81f59faed9a6U,
  0xe5ef3344eea8ba01U, 0xe1d8a0fc91becec7U, 0x15f0f23e2ba8b6efU, 0xfdfc2cb2822c400U,
  0x1df8ca3333f7ae16U, 0x2ed2b8af2054a91eU, 0x1c01e93d200c810eU, 0x1ebea5e91c5d8618U,
  0x22ecf817edbadafdU, 0x16cbfd0a28f1e3faU, 0x2507e90708fef52aU, 0x3b902fa2f13dee8U,
  0x2dedfe1c001ae01dU, 0xf7c829ff3005cc0aU, 0xd5f3f6f6ddfcfd04U, 0x13efaffeda1ef8e7U,
  0xdef4c6e4cf2d04fbU, 0xff1b8f4de17e2e3U, 0xdffcbdcbc62c1508U, 0xed04addefc17f3e4U,
  0xaf239f303ff0e2eU, 0x120def17c2d51510U, 0xd08502dfb1de818U, 0xf6040033f0e4dbf4U,
  0xfef963110ac0df22U, 0xf5e30f36d237decdU, 0x15ff81dce1020de8U, 0xfeecf1a61fcc1723U,
  0x130bc41edb0ef3ceU, 0x4cc53c42bb8e3fdU, 0x100cc07e7caec01U, 0x28c608d0122ed7dfU,
  0xd605f1b0e50a2effU, 0x1d270911f7c63a20U, 0xe60ef2f2ec0f0ff8U, 0xe805c0f1ede701f7U,
  0xfa03e6e9f0b5e200U, 0xea1aecd72fede0U, 0xeafaf9e0ec0f18e8U, 0xff04bf1008a21f34U,
  0xf6fbf8cadd4e130cU, 0xf600a91b1cb92115U, 0xfd0104dbdf0715fbU, 0xeb10f8040dac1213U,
  0x81f22303d20c06efU, 0xf10ce21c82c114d7U, 0x96f80ef5e2321119U, 0xe710ca0896b2f8dcU,
  0x86f41cf4d70af71bU, 0xec0db31287b2f6c9U, 0x6000f52a1be4ebedU, 0xf7f2c1d96db4e516U,
  0x5b11e31f2823e5feU, 0xeae6c9d74dc0df0aU, 0x5202da2934f5d912U, 0xf9d7cbcc59c3cff6U,
  0x1fd16be1ff9dccfU, 0xeae6f2f4c6e3d1ceU, 0x99fa15efa90f0bc1U, 0x1deff4d9e8ebc80cU,
  0xe103bb01dd0816f0U, 0xe2f9f9ea13c8ddffU, 0x1415ef230710c2ffU, 0xd1cc090adb31e504U,
  0xecf6fbf0deffe384U, 0xe4faf6ca12fefc21U, 0x15f7f6e8f21805e8U, 0xf31ae3f315cdd3f8U,
  0x29fcde053415dff6U, 0xfae515d8d611befdU, 0xc821f9c381e1e69cU, 0xdedd04d0f717e810U,
  0xe82827d6f6dd01e2U, 0x231cce13f9c414dcU, 0xf5f4c92e39a4cbe1U, 0xf1b600ab0d48b9d7U,
  0x1bf9a7384320defeU, 0xdec737bb1808dafeU, 0x21ebb14e4627cef1U, 0xc0dd3bce2c05cadfU,
  0xbf1630123ad4e2d7U, 0x2413b433fb34e7e6U, 0xcbf51d1f56350006U, 0xf21bb1ff50b13e4U,
  0xddf426344a030d13U, 0xc829202003eb0afdU, 0x3a090605eee225c2U, 0x341ce52b76682c35U,
  0x541ffcd5e52d3adfU, 0xf40d15126c0b1d3fU, 0x5c2ae8cae90234f0U, 0xec1505277fad2b2eU,
  0x9a07550bca00100aU, 0x1204183b92121ee1U, 0xd50438cec531172bU, 0xf803e11b919b1606U,
  0x81eb57d5c9ef1c0bU, 0x2b16094c853d04eaU, 0x140ff63232e3ebf6U, 0x1fd017dd260fd9f9U,
  0x22fcfa142124ce15U, 0x14d5eef62dded0e9U, 0x1eebed343ed4d6f7U, 0x2ac907f81945e5e3U,
  0x2a08df1806e9f2e0U, 0xd0208e652010314U, 0x32f7c8001725f211U, 0xfdf01ed843ace312U,
  0x12fcd8f805dcebe0U, 0x1aeb48f73a15defeU, 0xf10ed8fa0ede29U, 0x1cee2bedc606f8f5U,
  0xfb08dfcaf60cd90fU, 0x25d002e3dbf3ecd4U, 0x24fc3324e81a31c6U, 0x1a0dec283e7f504bU,
  0x5f8fe03fa01eb30U, 0x27e6d8cdeff8d1dcU, 0x2fac8eefe0fe1f7U, 0x1dbbc5ede6e0bad2U,
  0xdae94a1dc5133bc4U, 0x1239a84b10775143U, 0x13f8e406f9f9e225U, 0x3bdcd5d4fdeee9fdU,
  0xea01e8f0ea0bf2ecU, 0x14c3d1dff208b2cbU, 0xe1033821d1153806U, 0x173d6d3100791e24U,
  0xf2f3f8f5fa1feb01U, 0xddedf213ebc20205U, 0xf1f1100d0a36f41fU, 0xebf32507d2fef104U,
  0xe6f6200f10d601f1U, 0x70a0727d43a1e02U, 0xafe03f7fe0dcbfbU, 0xf2d4f90bd4c0aec3U,
  0x11ee081d2334b928U, 0xeecf00faf0efbbc8U, 0xfb0413240fe5f002U, 0x1ec15fedc2fc3abU,
  0xffebabf4ef0cbde3U, 0xf4e81d81e70909d9U, 0xfaf5f3070837a50cU, 0x5ee1cdcdb10f699U,
  0x707af0709cce1ebU, 0x60620a3e123f9baU, 0xe61fd1dc043fedc3U, 0xcebd9dab9300306U,
  0xc11cfcb721e2e2ebU, 0xd52f00fbdbf002eeU, 0xe01f00c003e30b16U, 0x62b4205f023e8f3U,
  0x22032efd5b50fde9U, 0x240dbcf3db01e4dfU, 0xfbe90d920320e8feU, 0xe90ee526e03bfa1eU,
  0x28fed60c1147befdU, 0x6d00d30a3043f30aU, 0xf01afe172937a1e8U, 0x22ffd51cb8139481U,
  0xd3030fdc2d23c8bcU, 0x101dcd18c570e2d1U, 0x100f73233f215U, 0x471ae9eed119ccbaU,
  0xd80a1dcfd415eff7U, 0xf3e4b3fec40ca0e0U, 0xc7f636c7cc02e7f6U, 0xf2dea526b20ac9f3U,
  0xbcf02ddac52103f7U, 0x1ed09522aa7fd8f4U, 0x2b06170bf6d8dc03U, 0xffd4d9f213ced80bU,
  0x18f2000feb24caf0U, 0xf0c9d30209cddfefU, 0x1ff31109e229d10bU, 0x2d0da011457e4e3U,
  0xfcffdf0500c4f820U, 0x99cd5faf7ffe0U, 0xecfec308fa1bde0eU, 0xefffaab8e814f0ceU,
  0xfe0dd702f112e0f6U, 0xe7f19dcdf25ef4ceU, 0xffff8b17000005f7U, 0xfffffd95ffffa96bU,
  0xffffd37200000dfaU, 0xfffff27cffffe7deU, 0xfffff954fffff068U, 0xffffcc16ffffc48bU,
  0xfffff622fffff25cU, 0xfffffeaeffffd994U, 0xffffcb18000005dbU, 0xffffcda4ffffdc10U,
  0xffffe859ffffd52eU, 0xf2300000e78U, 0xffffde50fffffafdU, 0xb97ffffd85dU,
  0x879fffffe5bU, 0x1350ffffe5a2U, 0x170503fa14eb21d9U, 0x604ed1afd0003f4U,
  0xfbdd0204fc00f606U, 0xc1fccafbdd0ffaefU, 0x170a0602f9f302b3U, 0x7020c02fe030af2U,
  0x5f80d03fa11ed0aU, 0xc80ceadfe001fbdaU, 0x110efcf200ed06ddU, 0xfd05fbf703ff19f6U,
  0xfce90605fbecf70dU, 0xb9f7d2e0e403f7d6U, 0x328050cfb0ece0fU, 0xfcffeaf505fc0d1cU,
  0x1ddf090104efa116U, 0x21fb000a15ff0011U, 0xec1afa05dcf6d800U, 0x5fbf9f105fd0723U,
  0x26d0f9fafa11a105U, 0x1ffdfdea10e7fe07U, 0x20300fffbf006U, 0xeefcfdf8f3fb1412U,
  0x7d823fcfcf58102U, 0x100d05f91ce1fa04U, 0xfbe6ffe5edc7ef0eU, 0xd803d5ecfd01ff0cU,
  0xa0aeffafefcd5d6U, 0x30bf2f9eac2020eU, 0xd5baffe6e2cfcf09U, 0xca0000de0100d8f8U,
  0x30edb06fd1ba5d2U, 0xfb04fdd7ecbbf8ffU, 0xfba508f628e0c709U, 0xebfe16f7f7face00U,
  0x110ce100fef9cbf3U, 0x110ceb2106de0a02U, 0xf9dc05c807efd4cfU, 0xe2ffb200fc09e9ebU,
  0x6da0d00ff0beddeU, 0x2707edfbf0aceaf5U, 0xfff3fccbc3e7d0e5U, 0xd3fde00105f8fc02U,
  0x1cd303f901f5cacbU, 0x4311e8c0fa8105d9U, 0x2ee905b618fbf1e1U, 0xc303e2ee00ff050bU,
  0xfcd107fa0405c4c7U, 0x3703e434dd9400ddU, 0x84e6061513b1161bU, 0x302a8e10304eedaU,
  0x9fbe800fb0a0326U, 0x11f8fe1210fbf70aU, 0xc2c9011ee4a80534U, 0xff7e6e2f4fadce8U,
  0x10e9c4feffd3ff30U, 0x240decba16ff091eU, 0xcdf201183bd51209U, 0x8051d01f9f9ca03U,
  0xfff0def7fee8f029U, 0x34fefa361cf61019U, 0xf30002fb18e70302U, 0xefcc025fa000af4U,
  0xf417f3f8fcec4118U, 0x6effd07fd24f802U, 0xa12fa0fb8ecfe21U, 0x16013b1e0e0200f3U,
  0x1122e006f8f93d1eU, 0xff205e00336020bU, 0x1c0cfb1827e7f012U, 0x13fdf9fcf8fa0ff9U,
  0x81ce3fdf5f42f12U, 0x3f20d23ea30010aU, 0x44cad5e6e7c504bfU, 0xc910dcea0fc1c022U,
  0x397d91b0be420d5U, 0xe0f1dbfdee25f5b8U, 0xdb953617deddfeedU, 0x9d17d5b2ced50d19U,
  0xed00f71b0db6dbc2U, 0xdd08c92ccdd60d03U, 0xaaddd4ebccea1522U, 0xf52a27e8f7c4aa20U,
  0xbf07c2f5d4e7cdf5U, 0xd8f8ded3d0f5dde6U, 0x380fe71af2e4e9f0U, 0xc71b12b6d013f9efU,
  0x1f048cd3cbf416c3U, 0xaadca3e6fec5e3f4U, 0xd2d435edfd29f221U, 0x1931c4bee1df9f15U,
  0xfee100d5d8ec16f2U, 0xcb1022b3f6811ce7U, 0xfea5eef50a13fbdeU, 0xaeda2ee616c7e3b1U,
  0x9205e525d9e307c9U, 0xdf2b0bbecfde0006U, 0xce150df71a1a1503U, 0xf7f923d8fed6feeaU,
  0xb0c23ed3cecec2b2U, 0xfde727222ae603fcU, 0x3ad3a1f01c40c30U, 0xc4edc8cd012dd023U,
  0x18191df2e749c4f9U, 0xde0e08cbd9fe2fedU, 0xd3b91bea26f2b1eaU, 0xaa26300015c6f20fU,
  0xc818cc352ccadc25U, 0xee2de904c6a71ce6U, 0x91e1dc19c9f1dce2U, 0x251506feffabc0U,
  0x1111fb2b09a509f1U, 0x231afeecf4c81dc1U, 0xc3a31dd069c5d639U, 0x9be9d11cffcf95feU,
  0x15f0c00103e12218U, 0xc2cfc143eacbc1c4U, 0x419e2eeb2dc1d50bU, 0xea36f30a0a31b7d7U,
  0xc42bcf25f6f8f8d4U, 0xa6f3f2c0f3060addU, 0xa4f3eeb80f1ece3bU, 0xd506bee9dac9bfedU,
  0xe803b2c60feaf7ddU, 0xefeb0929eb161713U, 0x91f1ea90f2f011bbU, 0xc8c508a30e26f4d5U,
  0xeab0bc362fe4f0a9U, 0xf800f106ebf9fea6U, 0x2fc819c5c91bd011U, 0xeff4bb05ec2513c9U,
  0xf8b6c03639bdf71bU, 0xd609f105aff00ce0U, 0x968121eaedeea7d1U, 0xf60e39c70132ac03U,
  0xcc09a1d8332c17f1U, 0xc307041204f832acU, 0xcfbc0033d011f90U, 0xef0bdaf823ffc195U,
  0xc596d903179f35e3U, 0xa22cfae2af19e8f8U, 0x37ded8cc1afafedfU, 0xf6fe41eef31fc697U,
  0xcbc89a031100efc9U, 0x41df1f50e0e2de6U, 0x7f2f8f8f00701e1U, 0xc02001cfdf9f9ecU,
  0x24dce1f8f7ecd2edU, 0xb8fef110c820f3f8U, 0x12f30af5e60502ebU, 0x604eff6f9fdd0e5U,
  0xfec6bffc020ad1deU, 0xacf63cd5cc28fee8U, 0x20f500f8280710baU, 0xdfef600fffbdfadU,
  0xf1e5bd09fb0fc0eeU, 0x90f1ebf6d1360005U, 0x8fc06d8faecfedaU, 0xf502d00e0c10010fU,
  0xd9fd150402f0d8fcU, 0xf60738f0d8f5fd21U, 0xf8fcce0b10f7f5U, 0xcdf7d10600fdfc0fU,
  0xdbe6fb06f606d0cfU, 0xb5071e09a1fc0724U, 0xfc0cf7b836022af9U, 0xcbfc240e1bfaf213U,
  0xc5e5160bfbf6bbc6U, 0xe5000c1a811efb14U, 0x9e6fffa27f4ede9U, 0x36f7051ef3040cefU,
  0x26c8ed0705d1b1f9U, 0xe0f3ba25e0f3f411U, 0x17d9fec421e2fedfU, 0x35faf21dfb01f803U,
  0x13bc110004fac8ddU, 0xd4f1cd38d6e701ffU, 0x192b06b12503f2dfU, 0x1804242b00fe490eU,
  0xfd715fdf7fbfbd9U, 0xb6ecab26c2e90204U, 0x6fffc01f9f407f4U, 0x6fce90d04fb05fbU,
  0xfff00300fefafa16U, 0x4fff113f7fe09eaU, 0xfc03ff09d4ea0e2eU, 0x105000201f3U,
  0xf9f4fcfaf5fd0aU, 0xfef50bec02f106f1U, 0xee02fc14ffee1edfU, 0x7ff0f12fcfbfbebU,
  0xf604fcf8fe15U, 0xe1f195fff0f80ff8U, 0x1bfe00bf0a0ffbbeU, 0xc0fffc00fefdf3feU,
  0x88ec04fe0004be09U, 0x23020713d5fa0404U, 0x1210febafd1e24c7U, 0xadfcf9eefc080107U,
  0x81ebfcff03f4c704U, 0xfef90c14c4f80011U, 0x2d2902bdf3142305U, 0xb8fb171bfb060a10U,
  0xa2df1a0301f1cf12U, 0xe2f909f2ca13fb09U, 0x10f4faf8f407fec1U, 0xfd0027f103feeef0U,
  0xe5eee600fb0f01fbU, 0xbdf2a1eaf31dfbe8U, 0xf2fd05fbeff001d0U, 0x900f8e60007f1edU,
  0xe7eef3fc01f7fc08U, 0xa6f9d2f3e91205f0U, 0xeafcfb0ff908f6e4U, 0x11ff22effcfdeb04U,
  0xfe01f7fa01070e0fU, 0xcbfb8ae5fd18f900U, 0x608fa0df7c2f20dU, 0xf4022400f80308e4U,
  0xfd14e3fa01fcfe05U, 0xf4f3f704061efef4U, 0x8f504312ec6f2ccU, 0xd07eb0a04faf4c1U,
  0xfb10befc030a050dU, 0xcf1e61bfb32f605U, 0x14ee061b11dbd9eaU, 0xcf80e090303e6e7U,
  0x253ac208f9090619U, 0x13f0f0011711f5ffU, 0x6f6040fdefd02f9U, 0x2b0520e9fd00efedU,
  0x1fe8fb07fe07bcf8U, 0xdb03c2d40bfa0003U, 0xae8f810f8f7e7e0U, 0x1f07eedbfb00f9e3U,
  0xce7d404001dbffaU, 0xd4ebb70600fb0201U, 0xd5e70505e9d8f7f6U, 0x18faf9d905fde7d7U,
  0xffe0d1ff07f9bfe6U, 0xc2ecbbd3f2f9f6f5U, 0xfd05f8a5f90ced1aU, 0xab01f5fdfdfafd1eU,
  0xce06ff0605042fd0U, 0xd6fd0cffc0e506f4U, 0xe5fc0681dfebf904U, 0x9e00ee0cfefe2015U,
  0xc3e1f9fdfef23ccdU, 0xc9fbffda96ef0801U, 0xf4f8019cef07e200U, 0xb0f916160e051403U,
  0x1de14fa050138d5U, 0xe6fb05dac0f0fe13U, 0x1a040c1328fffcfbU, 0xd6fd30bf0fef08f7U,
  0xbe26fd0705413ecfU, 0xf923db1bf4090800U, 0xe700f814e4bf08c1U, 0xd70912c502f8e6cdU,
  0xc3deefc0a2819d9U, 0x2e18e3dfc71209fbU, 0x1bb406f50cc3ce33U, 0xdb0662f10cffcdc2U,
  0x107fb4f401e900dfU, 0x3e2335eeefe603d9U, 0x2003f8e035fb0cdeU, 0xeb0121d7f8fffd00U,
  0xefe8fa05fd3323e1U, 0xfe15171cd40c01eeU, 0xe1c9010eb89a03c8U, 0x901f1d2f706bcc6U,
  0x25f9ebf7f91837ffU, 0xdf1fc7dad0e2eedbU, 0xf8cf6e20bb3de3fU, 0x17fa6ac10d05abbbU,
  0x2a4baf03f1f6f7dbU, 0x2f0815f812f301ebU, 0x1f29ffd556302cdaU, 0xe3fb2bfbf2f32817U,
  0xe1da2d05074366ecU, 0xf92ae451d907eff2U, 0x5230df9eeb7f7e6U, 0xf9fffbe110fc1bedU,
  0x20e62d14f32776f3U, 0xec1fedecd9e301dfU, 0x4b3f9e1f5a0b343U, 0xfaf63af4f80acfb5U,
  0x384fbf080a0f72daU, 0x27051af10efcf1f9U, 0xb8eae4b9f205f6dcU, 0xc42c20f8dadfd7edU,
  0x7ebc9f2242b19eeU, 0xddda021fdc07ed17U, 0xe01ee4d8d8f8d5f1U, 0x35e2010ed3f5f00fU,
  0xb11acc30091de3e4U, 0x1622e0b01ee70ef9U, 0xd9f0e4f9f7060ee0U, 0xf6edf5fb1403c1f2U,
  0x64cd4f9d413ecf3U, 0xe4efc7aadead0bcbU, 0xfcb20f1bfbd4be10U, 0xcaf518d418ffdde4U,
  0xd10efbe0d62fbe15U, 0xf20008cf06aacf0aU, 0xdb9e34acde18ceceU, 0x2705cfedfb18eb0eU,
  0xdf09eeeef40bbfb6U, 0x13f8dafee5d52ef0U, 0x81beff0bcee438a8U, 0xf1ed90ef013fe08U,
  0xe1e5c2d91917e6e0U, 0xc817040cca28caU, 0x2e332d0d501e206U, 0xdde022052b1cacf2U,
  0xeecff2d21f1ff4eeU, 0x18f0262206c8f9daU, 0x13f40002fcd3fd23U, 0x200dd7e4eaeed6e8U,
  0xf010f80d0accc5b6U, 0xf2fbbb0fc39204a3U, 0xd2b4d3f40b0b11ffU, 0xdcd8d6e4e2c3ed02U,
  0x10bc8002023bf03U, 0x4ddc212e59622f0U, 0xfd08fdf4fdf910c5U, 0xb051cf803060104U,
  0xddcf8f9fc07f81aU, 0x809e50d0cf9fcf3U, 0xee05fe03cdfefad0U, 0x3050d060007fe04U,
  0x10e7fe03fbf9f716U, 0xfa08d1deffe8ff0eU, 0x910fc0bfcfdf981U, 0xdfe010cfafc050eU,
  0xcebf705fdfaf81fU, 0x9009d0500e50409U, 0xf5fd05cce91f15cbU, 0xdafee814fd01f5f9U,
  0xbfe20bfd020bdad8U, 0x1502e9e5a0f20408U, 0xfb0f01e2cce3fbf9U, 0xeaf9e61904080710U,
  0xc9e113fb05fcd8beU, 0xf7fce8d4a1f90207U, 0xf7e6fbf3e42424d7U, 0xe306010c0705ff00U,
  0xc0ed13fdfaf9d9ccU, 0xe601f0c2bbee02ecU, 0xd7ef01b6ebf7df08U, 0xf01d70905fbf7ffU,
  0x50bf9fefa00ccecU, 0xa03fdfae9eb0812U, 0xf5f3fdc3f100ea05U, 0xf8040c0905fb0203U,
  0xcdf7fdfe02f9e8f2U, 0xfa05dcf3e4e504fdU, 0xf7f4fdb6f009d406U, 0xe5fbf4f20104f802U,
  0xd5ee0d050100f2e6U, 0x1008daf3d7d400ffU, 0xe712f7fd05f11807U, 0xf0fd04ed01080bf7U,
  0xf616e8ff0116f608U, 0x2116083301e40504U, 0xf1f702e915d00cf8U, 0xcbfce6cc1305e8d4U,
  0xdf0be3fa06260fe8U, 0x3191a44d5e109e0U, 0x1ae3fe1101ebfdf4U, 0x4077f2616f900e0U,
  0x4135ddf6fd2206e2U, 0xfe0f2704f63bfefbU, 0xed09fdeaf9fa03ffU, 0xde02f7e7080bfcf0U,
  0xfe13f6fcfe2114faU, 0x1a27410ceef308feU, 0x20f09e831e209feU, 0xc0fee7b20101fae2U,
  0xdcf40004fb2afae4U, 0x11071725eff1ffe7U, 0x28f4faff1400f0fbU, 0xefd6a0dfd02f9feU,
  0x1520160a062a0fe4U, 0x1919120a1921f605U, 0xeb05fae41ee8e90eU, 0xedfafef50df40e02U,
  0x350c0d020119f6dfU, 0x31390739f5df02faU, 0xdc0af7e60cdc05f6U, 0xd2f3eee212fa03f7U,
  0xf50f0306012de4e4U, 0x1c04f21efcdf08e4U, 0x48e40428f4e8fb12U, 0xf0761350dfd1602U,
  0x1a1d1d040b172acbU, 0x1f2013eb1e20f4e7U, 0xf2f30013c8e60accU, 0xb05f5e5f9fbfbcaU,
  0xede9edfd02f7fb1cU, 0xd206d9ccec00f8adU, 0xfe06010ad6e10bc8U, 0x8fe2805fffd09c2U,
  0xfbf6f0040010f712U, 0xd314cea7f607f781U, 0xd301020c01ea228bU, 0xe0026fd030308d1U,
  0xb02f5070703fcffU, 0xf102d5c3f012fda8U, 0x251a03d1ea11efa2U, 0xd6fde5e9fc031616U,
  0xe6ba19fcfbf5de11U, 0xd4f6e006eee10316U, 0x1109fdebf7f808ecU, 0xdc020df1f50afe0bU,
  0xccb200000610ea0eU, 0xadfac9e5e0f20608U, 0xfc1bfc00f12814faU, 0xdc0417e600fa1c01U,
  0xeed9f5fb06fde80bU, 0xb40fc5e7eaf40419U, 0x3ed06c727fae7fbU, 0xdf03bff9fbfcf1f7U,
  0xe7fcf40007f9f4c5U, 0x340add210df200d1U, 0x9fff8c10102fff4U, 0x903ea00fafbf708U,
  0xb2faf6010203e1bbU, 0x170ae717e3f109aeU, 0xf60a01bde00f161eU, 0x9fb1113fa010cf6U,
  0xdeeb0006030d00a3U, 0x3501e6ffd008f7b9U, 0x405fac2ee1e0aecU, 0xeffb0600fd02030cU,
  0xdf03f7ff06f10df7U, 0xee0506f0d50effeeU, 0xfe1b04b8311317f2U, 0xe3f90fea06f9150dU,
  0xf8eb080202f802d5U, 0x20a0dde2106c5U, 0xb70a03dcfd0d01efU, 0xea0512cffefbf6e7U,
  0xcbe8e90706fffbbfU, 0xf00308e6edfd05ccU, 0x10fd06cf0cfcf40fU, 0x12fdfee4fefd02e2U,
  0xb606e90105e901e6U, 0xb10011bc60a06c6U, 0x1129fda22dff11ecU, 0xf3fdfee50502f6eaU,
  0x96ebedfdfce119a0U, 0x15140a3bac090781U, 0xcc0c00b6f8ff05fcU, 0x9fb1de8010004dcU,
  0xc1f6e704fbf80eaaU, 0xf0b0bf0b1ed04baU, 0xfb1103baf9141401U, 0xe0fbe0fc02031005U,
  0xde100806fb00ffc4U, 0x60c3e1cf00bf9e8U, 0x161103ca4bfe01d6U, 0xfb051d0203ff070cU,
  0xb5081707fbf401aeU, 0xf4060437aa0b0ceaU, 0xfff304c9d3111bf8U, 0xdcfe22f700fbf0dcU,
  0xc3efeaf9fefcffb2U, 0xcd029ad19119fff5U, 0x13d1092e3fcc0102U, 0xf6f9269204faa189U,
  0x1240bcf9faec46faU, 0xf31dd445f4d6fa87U, 0xce4fb0d3ee1f728U, 0xcbfb2fccf70ad5beU,
  0x90fdb08fd171ef2U, 0xef19ef57eceb00a3U, 0xf9140dfa38fbf7eaU, 0xe4fb31d6f7f9c8f0U,
  0x31107f9081715c9U, 0x251aeb3813d40fa9U, 0x3e4fa1f40ee15e3U, 0xc7f51992fdfea4c7U,
  0xef01dd02f5fd3ee0U, 0x1b06c217e6e4fbe0U, 0xcccfde218ccebf2U, 0xb7072c8906fa99e7U,
  0xde14e3f8041c1ae9U, 0xf811e737f7fdedc3U, 0xe8eff4ff1be91c05U, 0xddf934c50bfaa001U,
  0xdcfcd5fd000a04f5U, 0xdf09f41ac5ee0eb2U, 0x1ffc0cfc1b04e10fU, 0xe6fd2ef5070a0ee5U,
  0xc214f701fefc4cfaU, 0xf8134010e72af108U, 0xfcdd07e5fb11f1eeU, 0xfc052a040605f8e8U,
  0xe30df90202077f00U, 0xfc031c1fbf1aeffeU, 0xa3d01ea2c5d48ffU, 0x8fe352309ff0b17U,
  0xadf823f9f81051e9U, 0xe0020612c4f6060aU, 0x2bf1011d24fce009U, 0xff01d206fb08fbU,
  0x1132fd0003f8090bU, 0x3f4df231412fe08U, 0x1ffefc1cddf9ec20U, 0xf706e6d501071502U,
  0xee2f0e080306e317U, 0xf6f5e20a10fdfe24U, 0x140d030812fcd6fbU, 0xed05e5bbfd041ef6U,
  0xd91ffdfcfae9e60bU, 0xe8eece1b0002ff03U, 0x15f0fa0201e2e2beU, 0xbf9f305f6fffaf5U,
  0xf80805fafbfbe0deU, 0x5e3040fd01602f3U, 0x1010fe0602fceef2U, 0xcfe0b11f2010710U,
  0x7090ef9fd10f7daU, 0xeeb0817dcfdf9feU, 0x111406f019f50dfaU, 0x41df7fb002518U,
  0xb0210fb07f6ffc2U, 0xd8f5e303d5ec010dU, 0x1cf9f9c6f4e3dcc7U, 0xcaffe1fcfb0315ffU,
  0xec9409f9fd1501f9U, 0xe7f0d82302b8fd06U, 0x14e5ffd7f2eae5e1U, 0xd107e504ef03e305U,
  0xeba50a070309ec00U, 0xeff8e51a17a50008U, 0xfd505c907e5e681U, 0xb1fd24e80608f209U,
  0xdf8c2102ffefdfefU, 0xdb09c941ffccfffaU, 0x26fdf6c7cc04eafdU, 0xf2f643fbf80afb0aU,
  0xf9fdfff906f0e9bfU, 0xcdf6d9e7e1fc08ebU, 0xe9fd07e7c7f6f838U, 0xdbfe350a010a04e4U,
  0x1bfbefff0a17da8eU, 0xfcfe0cd6ee11fee5U, 0xc60e06c6f1f002feU, 0xd807e81ff404fbeeU,
  0xfbe4f3f7fb04e098U, 0xecf626b9dd0300f5U, 0xaec03cff6cfdfedU, 0xd7fe0610fc0bfbffU,
  0xdcf8e702f9f4e5daU, 0x2611ec1af9e403ddU, 0xe6f5fdcfdfe2d905U, 0xeaf9181209f8fc03U,
  0xfa21f204fc0ae6d1U, 0x121af8e9f5d3fe0cU, 0xe4eeffbad1e3d2d6U, 0xd4fafd0ff6ff0215U,
  0x52303050113e7d6U, 0x32130fe2f5a8ff02U, 0x2f503b41ed1d432U, 0x98f7f7ecff0b1c09U,
  0xc7c804050310d5e5U, 0x18f0220403dcfe12U, 0xe9fdfabfb1d1b810U, 0x8106cffffdf41008U,
  0xf29d0202f4ede8e6U, 0x14ee0bee0395fafaU, 0xe70300fde7c4c02bU, 0xd2fe07fcef09f50aU,
  0xf5930b0202f3d403U, 0x23eaf60719f10606U, 0x1fb701de0b1ddcf0U, 0xdc13e5b91500f10fU,
  0xecd40102eef401f3U, 0xbbfbf5e6e4ac26ecU, 0xbab3f4dde1271d0fU, 0xb207d9e001edb008U,
  0xe51ba82f0e05e0dfU, 0xc7d403b91ac529f9U, 0xba209f9032eb724U, 0x37290611ed04afdfU,
  0xbf0ca5ce33eb10ddU, 0xdffcbed42a0bf8f7U, 0xed061b0200d1d6cfU, 0xcef309ec0be6fe1eU,
  0xb905e7fe1fdbd8beU, 0xba2405d7fafce5beU, 0xc4fc30f30a13afedU, 0xe90e0bb0ce289ff7U,
  0xea3ae813d9241ca4U, 0xebebaf069af92bceU, 0xf1bdd2f3dd1fe5d7U, 0xe82cd2d02023a9d3U,
  0xd8088de2310aeb81U, 0xf5d61e48abe605c9U, 0xce0022ceefbf22e3U, 0xfb25e8cee8d8ccadU,
  0xbc36e62b2310e88cU, 0x1431271803dddcb1U, 0xb7fed90002b3cbfbU, 0xac15eabde0d2b0b4U,
  0xbcf708f301c1e6e4U, 0xd028f028f0daccdcU, 0xf1c11dd82dd4d91aU, 0xfccfe7de25f2a4daU,
  0x12269e29f81329d9U, 0xdff10232d8c1eee4U, 0xdadd000e31cd1317U, 0xfff9f4adf5fbd7d5U,
  0x33a1bfb062b2700U, 0x4f6112cf6c2fed5U, 0xddd700040bd10d0fU, 0x1072ec6f6fde510U,
  0xfe1814050130f5f8U, 0xcfe101cffc5fef7U, 0xf8d708201500051bU, 0xdf82cb1fff8c316U,
  0xec22fa05f905e71eU, 0x1b05f90904f40cf6U, 0x9de9002537c7fafdU, 0xe408d79ef50683aeU,
  0x201b8afd070c3d28U, 0x8fb133215b1f9e7U, 0xcb0c00f61dcc0be4U, 0xcffb07c0fffcbeddU,
  0xf817d205f811fbf2U, 0xe304f7100faefebfU, 0xec03f70a10e505ecU, 0xbef9f1c0f3ffd205U,
  0xe911be07fff9d8e9U, 0xeefcf7270ab406cdU, 0xd217fefc16de13feU, 0x6fc16c5ff03bed9U,
  0xc04b7fd0b2411ebU, 0xb020ff5feb601caU, 0xc1fdfbf7fdf505faU, 0xedf70ed0fd0081c8U,
  0xfbdfdefb062e31ecU, 0x1f6edea04b206e0U, 0x120d04f4f7ef28edU, 0xf1fff3da040aab27U,
  0xee1ed06f70025f4U, 0x14f4edfffdd50003U, 0x61ce9df1120e022U, 0x8ef8ecbb0d22c3edU,
  0xa925bcfef2f4c4adU, 0xf3e9e125b6fdf8f2U, 0xd118e7bdfdcde1b7U, 0xa6faedacf918beedU,
  0xcbe1c802190df7f3U, 0xe5ee1317e5f9fad7U, 0xe2f6fcd006e7fe42U, 0xeffaf1d719ffc7e1U,
  0xc00c113ec020301U, 0xdafd171b0ed6e4eaU, 0xcfe30dda2b312a20U, 0x510dc13fc01d21dU,
  0xe8e38102e5fbfde5U, 0x1ff0f22d0df106caU, 0xf19802f0bce42d0bU, 0xeafed6e7eef19e10U,
  0x7d0cb09fbe8f0e5U, 0xf90ae103d4be12c4U, 0xecbb0dff06e1dc12U, 0xccf7f9fa09e9d52cU,
  0xbdacc1316d80328U, 0xe9eef5e2c7e30817U, 0xd7ed163bd2cce1d2U, 0x1af7dd01ecf8e5d5U,
  0x1d1bd2fd1bdbe629U, 0xafe8df27f5e5fb0fU, 0xac90d0312bed2fcU, 0xc8f82bfffb0c03ecU,
  0xe7e7fb13fc0ae4f7U, 0xd30ffd26c91414e2U, 0xe3b2ecef28e6bff2U, 0xd8fd07e0e613eefaU,
  0x111bf80f05dbfedcU, 0xde12e9f412cefad5U, 0xb7fbd558121fd2U, 0xeccc62727f5d0f6U,
  0xb34f7da3046e6b4U, 0x12e05ef13a517afU, 0x38edcc04d6cbd7e9U, 0xb9152e26edd7cef2U,
  0xe526da0de1ddf8a5U, 0x12029fdaee8efa5U, 0xdee42ac527e11ce8U, 0xf1e128a916ced7e4U,
  0xed1206cf264208b0U, 0xbe0a0c20f3adf5b3U, 0xc9dcf9d639c8dc00U, 0x9a01fbb014e4dfd6U,
  0xaf07fffce16ad4e6U, 0xdaf3fdeeb6d90dc3U, 0xf3df0cecd3d1ddf4U, 0xb1eb5d2ce0b93cfU,
  0xe7008be7151e1781U, 0xfa0d32fdafc00fd3U, 0xe1f80ef5f1d81ff8U, 0xb720f5e3d920d4f0U,
  0xdde8e9ea012710ebU, 0xb123d53de282e0aaU, 0xebb901dfb1c5f71aU, 0xc6e9d0fadce6b7eaU,
  0x71de6f5e1693bdfU, 0x12eb25d8b004d7d5U, 0xf2ce2de210f8c101U, 0x240ff4fd052685dcU,
  0xc627e1deef4129b8U, 0xede2fa1cde0827b0U, 0x14bccbcfe1bde003U, 0xd27491f10e90aa5U,
  0xeb0af504fd501d16U, 0x8f4fcd5e11516e6U, 0x1ddd0ab4202a2f0cU, 0xd30320000d131a19U,
  0xe442fb09fd68e5c8U, 0xc262601aa21f800U, 0xcfbb00cef8d20210U, 0xd30454cd000904f1U,
  0xfc3b160fef34e7c2U, 0x1f17eacfee13f7dcU, 0x9fbffc1fe4e6eb16U, 0xef0140eb0df9e594U,
  0xde59b50bf0f1fff0U, 0xfb0f39cbed17f621U, 0x3ee502bf330e0d06U, 0xb3f03ef2121215dcU,
  0xe75df0f3f43615beU, 0xd963470ba6d8fab6U, 0xe1bfeeb42ef1cd2bU, 0xddfd4deffc0508adU,
  0xbe5a1605fa02ea8dU, 0x157c4e2a1c00dc9U, 0xd6acf3a8e0f4d2fcU, 0xf10b13e60706f9beU,
  0xea79d601f5081a8bU, 0x59533dc5a7f6faccU, 0xede309eb09120fefU, 0xf40b43daf4f9f508U,
  0xf9e3ec0ffd305702U, 0xea13efd7e5ddffe1U, 0x9cc0e0328ebc156U, 0x1a07fb37000b81d6U,
  0x5cefb8f10ef60c12U, 0x722d18bb27b6f335U, 0x11c00de56419d32aU, 0xd9fd57f118029ef5U,
  0x3e3bad0ef5014ae6U, 0x322dec0629a40df9U, 0xeefa17ce530cbe12U, 0xe8f7f32dfd14ed04U,
  0x9ef0e6fbf0260ee7U, 0x162b145bc9c20528U, 0xb1da15e0f7fcc9e2U, 0xbc07fd4810fe051fU,
  0xa0981f8ef65f5faU, 0x412f2908f4f0082bU, 0xc1aef6a4fec11035U, 0xa0ecec48ee01f0e2U,
  0x9e2bdbe81506eae9U, 0x2e5f1b08e9991403U, 0xe7dae8ae3edabf10U, 0xd007c543231ad50fU,
  0xc752dcfa002ad5c0U, 0x632e55402130dd4U, 0xc2cfe5bc0ccbdce0U, 0xf80d31162b1ec105U,
  0x6408c90f144ce7c9U, 0x3e60f017f705f5b7U, 0xa99ee9da32cbc404U, 0xe4042821fd15e51bU,
  0xee28daee0cef0ae7U, 0x1b52e4f64cdb12f1U, 0x49a08bf3bbf88e4U, 0xb6ebc3d2e308ddcaU,
  0xacf0aef0041dc2cdU, 0xfa26f64bf2a20ec3U, 0xc99de6edccfdaeccU, 0xa8e730b51001bda2U,
  0x11ebe2fef962f4d6U, 0xe907bbd6ced2f9abU, 0xf99d120211e6fb2cU, 0xddfb08cbfd20a2d7U,
  0xe00eaa04021724d8U, 0xf20ac6070e9500d0U, 0x2dc709104e1115e7U, 0xaf8fad902031103U,
  0x3cc0cf7f90e3bf1U, 0xa0ee2690bcdfcd7U, 0xfda702f6edf0f9b3U, 0xf1fc2de5fc02e5e7U,
  0xed5f108001b0ce6U, 0xf40bc2e30abb05e4U, 0x89901ee27edfeddU, 0xeef9dac20902cfe9U,
  0xf9d7d905fc0dfbe9U, 0xfdf5d31a07b5faf6U, 0xe3da020e1733ff1aU, 0xed0111cb1404d0dcU,
  0x8e2d8090201e70bU, 0xf905f32df7040114U, 0xfdcb001d0133ec03U, 0xfb081bd506fabcadU,
  0x6ecc5ff001cff04U, 0x20aebf31517fd12U, 0x2ccfc0a092710f6U, 0xff0713be1500bbb9U,
  0x1806a40602ef09eeU, 0xfd0df607f6f105e2U, 0xfbd1f61afff1d802U, 0xa0028c3fdf9e1d3U,
  0xff24a206fb150e13U, 0x200f5310404fdf6U, 0xd6e1f702e3ed0ae5U, 0x8f911c20a01c7fcU,
  0x91fce03fd1204faU, 0xeafddfd10ceffffbU, 0x9cd40518f3c50001U, 0x300f1bc03ff81f4U,
  0xd1ab403fef4ecfbU, 0xff2cfd6150ffc24U, 0xedd5ebb8ccc8b211U, 0xc9e5cf02dbe51dd9U,
  0xc625e41bf36101c2U, 0xdea6b21aefdfe41U, 0xa5c0e7d8f8f0a703U, 0xab0748ecdbf3f1b5U,
  0xb931b5d9eb2fe8c9U, 0xf8e25138dacaf9f6U, 0xecacfebdff99a3ffU, 0x9b04fce7e2f1e9d9U,
  0xc741edede124efb5U, 0xec1e622bc9f3e8efU, 0xfff2f30fffe9ebd7U, 0x82f5a009f019e8a6U,
  0x2508b2210d2c12fcU, 0xd800fc6e19cb11a6U, 0x18b70f18f4facad7U, 0x41a9614dbf0d1ebU,
  0xed05bdfe0eecd291U, 0xa3dd09f7cd890df3U, 0xf6cff7dcfdebe802U, 0xbf202fcc110effcbU,
  0x1235ea0216fe212bU, 0xe1fef3fececfebe1U, 0xdbcb03cb26e8f8f9U, 0xe407060b0b17f4cfU,
  0xb1cde8f8e72beebfU, 0x9706de0eabb60c93U, 0xf6f7f0b3f8d8e626U, 0xbfdb27c80411b5f6U,
  0xdeadace3fbf1479aU, 0xbd06ce06a9e9e181U, 0xe602f5b31acfe1c4U, 0xf50f25c2e110d5bdU,
  0xb4b2c91b07d868c7U, 0x8901cf24a9e512cbU, 0xf7ec060a01e8e601U, 0xf407f4f70305f301U,
  0xfafff4fdfbe22103U, 0x1d05e21a22e10808U, 0x15fefbef1efc08f9U, 0xf30602fdfd030600U,
  0xf1020201070104ebU, 0xf906c22cfd00fa0fU, 0x2e1d0818c50a0cccU, 0x1cfbd2ff0f031514U,
  0xfbf50e020b0a16dbU, 0xcb06b3d9e10814ebU, 0x26e7024129d9f207U, 0xefc04e50004e9edU,
  0x17efe6000fe93630U, 0x2409fb162b0bfa08U, 0x1f702ef53f7f9ebU, 0xd801afeef505fc01U,
  0xcde4fcff0600e4f0U, 0xfd08ec4bf9f1f4e8U, 0x501af5cdf42417c8U, 0xe1fee81500fc1b29U,
  0xb7ba100401eee5e8U, 0xc616f118d31109e3U, 0xa9dfff4921daecf9U, 0x2e001bbaf8ffc79cU,
  0x380eaef9fef3f61aU, 0x19f7fee70e25fbd8U, 0xfbdafff32eebed0aU, 0xdef9c5def0f3e4ecU,
  0x4fe0807fbe5f0fcU, 0x14f50a7302eefeddU, 0x7f2206cce02611ecU, 0xa6fbd605f0fa3357U,
  0xbdda61f807fdf9eeU, 0xf1effa1fe7ca020fU, 0x8b9f527f7d9de02U, 0xf609d11213f8fac2U,
  0x22f3d9fa07fb6024U, 0x281bf6152be0f123U, 0xfce01fe09cffae5U, 0xd50b3abe0bffd8c9U,
  0xbde2d9f5060a10d8U, 0xd30d2b1ecce703e0U, 0xf8c90a17accfc91fU, 0xd9ff1ae2f70615d4U,
  0xbcfcc3f70e0106edU, 0xc51225d79a000087U, 0xebae0b13e9021dfbU, 0xf10c138efb0afcfcU,
  0xb5eedf8f3ff3cd4U, 0x2343dc0001ef00f6U, 0x4c106fbffe5fa10U, 0xbe0de69ff1f60505U,
  0xbdfafafc00231dbeU, 0xda11f425fecafcdaU, 0x36e0fce2ffe8d60fU, 0xdcff0d0008fe1101U,
  0xa917fef900ff02bcU, 0x81280b2cc6d8fad2U, 0xede90ce8044f1dd9U, 0xff01fca50a05adbbU,
  0x330dccf201f753f2U, 0xc1be4ce01e0febcU, 0xc1b60a0409301aecU, 0xf3c9ce0704bad5U,
  0x3d0cf900032f3529U, 0x30ddcf414d1fadaU, 0x6736f71d3311d6c9U, 0xbf9d3eb09f83a40U,
  0x42013404f6184c27U, 0x201bd54e2cd9fc15U, 0x2fe207114c0821d5U, 0xccfef3c70df5e625U,
  0xe505f40b0a242ad0U, 0xb019d55db7f4fbeeU, 0x10de00d13ab0f944U, 0xa6f40fb215f9dcf7U,
  0xc21dffa00eaf2acU, 0xfc162839e9db04baU, 0x16eb071f07a2e211U, 0x10569f610efe41cU,
  0x1e69f6fefb053bf8U, 0x1e016901f6f3fd00U, 0x25eb0305441efad9U, 0xa1f0d1eff808d60aU,
  0xdee5e10cfc1322f4U, 0xfd11d21af9e4081cU, 0x1bf5fdaa22b8c939U, 0xe4f616c313fee3e6U,
  0x8dee9f1f2f2f2a4U, 0xda1af341c9f8f2d1U, 0x39f3053802bee008U, 0x1df668e10c0ad4f7U,
  0x5446dcf20b1d03d9U, 0xf1f81fefc9f6f315U, 0x20cf2e4143b20ebU, 0xde0ddd0d080ff9e9U,
  0xd4e111040d0c7fe0U, 0x15153d32c72dff06U, 0x1eecfeb95cee2449U, 0xbe0a1ad31efbf217U,
  0xaf9f40ff40a3fb9U, 0xe2bf163de03f60cU, 0xd0e0720f1055c25U, 0x11fa5f020b0e0c19U,
  0x42292201fd1633c9U, 0x11f0becdfdff9fcU, 0x1fe04cb280213caU, 0xf402f3ff08fc0422U,
  0xccfb1503fdf9000fU, 0x1e10081704def915U, 0xcc09feed1c0b0cf7U, 0xf603e0f703020d0cU,
  0xd60b0d00f917042dU, 0x140d0e07fed9010cU, 0x2a1cfadb2e130ce1U, 0xf5fce8f403fa141fU,
  0xe7062204fd10fa12U, 0x1b06112df9cffcf6U, 0xf3f106f4f8dd05edU, 0x1203df0ff6f8f2f7U,
  0x8f3e90704fa180dU, 0xeb0302fae60704fbU, 0xf6f703f9091012f0U, 0x5fcefee07f8f1e3U,
  0xfee7e9fc0013f205U, 0xc403eef4dc0ffef8U, 0xfd06fff81c33fcd5U, 0x402fc010bfaf4ffU,
  0xf0eb0405fff1e805U, 0x8801e509d8f70306U, 0xcdfcfcebf5fcf420U, 0xf302d0f0fd0500f0U,
  0x12c4f7f9fbf0e7f5U, 0x85fbefc90002f8daU, 0xc9fdf904fff7fbd9U, 0xf406f3e3ff05ebd3U,
  0xf7cbe607030ad9ebU, 0x81f809e1c0fcfda7U, 0xdef101f6fdf104f6U, 0x3fffde9f8fafddeU,
  0xdacfdefd0703e2e6U, 0x82fffff2a7fa008eU, 0xd61dfbebe1fffdeaU, 0xfef8b41bfcfb07ecU,
  0x11dc07000af4e8edU, 0x12f9e1f6f0d2eefbU, 0xcbd70af5afc8c0f1U, 0x6f7c11efb05e6d6U,
  0x1be9d5020401ecf2U, 0x1609d0b805cdf403U, 0xf9b6ff07d3d7a3edU, 0x19fc05440400d5cdU,
  0x41e6da01001cd004U, 0x41fddb0d25e70033U, 0xa420fafbfdfbfbefU, 0x40adafd0b05daefU,
  0x14dbecfe02f3cc02U, 0xf304def6fcdff7fbU, 0xc5c5fe18c6b9b8f6U, 0x3f8e5ef02f8b6d6U,
  0xde3ba03ffeae302U, 0xeeedd4940300ff0fU, 0xcfbd030ac1c1d4f8U, 0x2ffdece0ff8e2d6U,
  0xa00cd0704fe01fbU, 0x50cd1f105f7f911U, 0xf732fefb40a2c8c6U, 0xf4fed608fdf913fcU,
  0xe013fd07fefe1104U, 0xdb0a2227e10cf002U, 0xf7fd0018fea8eccbU, 0x1063dfc0604fea1U,
  0xf10cda02fef22204U, 0xdbf600e3e43302e5U, 0xd9dd0839ea81f2b2U, 0xcfbece9fbfff89aU,
  0xf21ca8ff04f530f7U, 0xe7f11001fd28f3dfU, 0xd6d016fd2ce6e427U, 0xdaf8d7d5ed150f01U,
  0xeef6ef12f11ef713U, 0x51337e1da050607U, 0xffeef9cacf1605e6U, 0xd710ed04cad90bd8U,
  0xace0d82d2acd11c4U, 0xf60ac21ceaddd2ffU, 0xb7d907c2fa18c725U, 0x1c2216ffe0dae21fU,
  0xf403d5f0cd19f3d2U, 0xbdfc130ccbe8dad7U, 0xe4cdf4c61de4d4d1U, 0x2910ffe9ce31dac5U,
  0xb13e4eaf2f3d1a1U, 0xd3f524c9ebd8f81eU, 0xcfe81bb80007dcd2U, 0x1803e2d4260cce01U,
  0xc4dce0f1ea001581U, 0xea261503d4170702U, 0xc70025f617d4e00cU, 0x14d5ddb7f2ea1601U,
  0xd4d3f202eb08ded7U, 0xf3181128db0c1b05U, 0x1addf6e3f9fddfe8U, 0xe2fff606d0cdee08U,
  0xdd020c20e7ce27c4U, 0xd4c7ffc7cace1709U, 0xcfdc06d81ff3d32cU, 0xd92ce7c0fc25fbf5U,
  0xa824011112f827caU, 0xb22d901e3e403f7U, 0xd1ebcad2fcceddedU, 0x19c807ae01ed0706U,
  0xb629e62e25d5eae8U, 0xc41829f8df20d2d7U, 0x161102cee10e0807U, 0xde011413fb01071bU,
  0xdcf41207f80ab8f7U, 0xb3f9d6dbf609f920U, 0xe90400d3c606efcbU, 0xd2fefb02fc01170fU,
  0xc7cb020207f8b509U, 0xcaf9e2b8e60b0129U, 0xf0f807f9d30cfdafU, 0xe500f61f0506e014U,
  0xfeb7f6fd0301ac0bU, 0xf4f6e8d40c090229U, 0xf03fccce4f715f6U, 0xefffffd07fd17e6U,
  0xe3be0a02050f08d8U, 0xcd05abd8a711fbd9U, 0xdef9fddccb0b0612U, 0x1500dc0b0b0606bbU,
  0xd5d9020503f8fccaU, 0xc5fcb0c1960c02efU, 0xee15fdd1fb170b00U, 0x703d2020d08fcd7U,
  0xd0cffc08fef7f3d3U, 0xbdf781c5a811fceaU, 0xbf102d813f7f523U, 0xc7ffe5e8fefefd0cU,
  0xd5f705fefafaf3cfU, 0xd8fa0ff2c2e2f9e8U, 0xbf0000bbd3f7f91cU, 0xbb03fdeb08fef9fcU,
  0xc103f30505f9e6ceU, 0xfd03fec08be8fce5U, 0xd1f0fcccf2edeffbU, 0xdefdd2dffa07f4f8U,
  0xd1f7fa02fd00f4c7U, 0xd504f6e19a03f8f1U, 0x9c3fce721ee0e12U, 0xafdd17ffbf89ec5U,
  0xf930dcfc0fbeb902U, 0xd8fc0b31020eed15U, 0x18a7020df6f3db02U, 0x39f729590e11a4b3U,
  0xc31c8ff0ceecf23U, 0x207d3dffe3bfc3aU, 0xb2c10428dee5c1ffU, 0x130aed50f9039ba2U,
  0x244ecd040024d83cU, 0xf30fda011bfff008U, 0x4105ffd236dc0d26U, 0x1dff690f1703ddf0U,
  0x15ecef0e04c19fe6U, 0xafdaa4c054b0802U, 0x350e04f1e8d700b6U, 0x1e08172f0e04fb14U,
  0x1500040801e4aed9U, 0x1ce78b01004b0926U, 0xfef2f9f5d4caddfdU, 0x110ab30f12ffc6d5U,
  0x23dadf080cecb9c0U, 0x210fc3c7f341ff20U, 0xfef06e02200d810U, 0xca0747f0140125f7U,
  0xcefa3cf7f30205d5U, 0x13052159f6f112e4U, 0x2116f3da1c05e21aU, 0xe9ff33f8f9ff3115U,
  0xd9ef3ff4f7f9fed8U, 0x3419fc2910120805U, 0xc4f6fbdb15e0e822U, 0xeb04b800f3010d0bU,
  0xd6ef19080609f2d3U, 0x331a1f0de9e601f7U, 0xf7ff0304eefc08daU, 0x907c0f2fffbf7e0U,
  0xf6f8f60303fefa1fU, 0xedffeff1fae2fdedU, 0xec03041014f819f3U, 0x10051afffffc0bf2U,
  0xf1040204ff07f218U, 0xeb110203070f06ffU, 0xfdf8fc1cfeff1706U, 0xfffe70c02fef5edU,
  0xfffbeb01faf70d25U, 0xd9fffb050b03f91fU, 0xecfa03f7fa03e9bfU, 0xf6fdbcf90101f6f7U,
  0xf9e1ed06fa0cfd07U, 0xe0fc1af6e1fe04f2U, 0x111b07093825f2cdU, 0x13fd14f8fa050d0eU,
  0xfef21bfc0104fc09U, 0xc9f70a21de1c0013U, 0x60d02070d06fd1bU, 0x1703d214f503ff13U,
  0x8f106050300080eU, 0xa70bff16da170524U, 0xdcf206c6d3e20989U, 0xdcfad20004fbe9faU,
  0xd5d8f902fc02e6c7U, 0xbfff81edc3f903ecU, 0x130efeca38140ba3U, 0xfb03032004040c04U,
  0xdddd26040314d6c3U, 0xb4fc9539e906fad9U, 0xddf80100f7e9fff1U, 0x12fcd92102ff08f4U,
  0xce00b0300ffdfedU, 0xb804b1fbe0ffffe6U, 0xf4bf12a528125dc6U, 0xea2adcb81b37c00eU,
  0x30ddf00109f7e2c8U, 0xc4e408f3d4e718b1U, 0x4d0f5f8040b0ce8U, 0xeed2b11c17f11aceU,
  0xf2ffd20fdf1cf9eaU, 0x880a0f31e3e5f9d3U, 0x26aa06cb2bd21fd2U, 0xd7f7efc20bf1bbacU,
  0x9e8fcbe2203ce0d1U, 0xfbe619ec00fb19f1U, 0xff0cfac23ba138b5U, 0xe9e4e611d717bcefU,
  0x1116f2d2250415b1U, 0xf1cbe1c108f616a5U, 0xf5c61bb9c7ed27b8U, 0xac4251d2a23c8faU,
  0xf2d0b7e2f6ddf4cdU, 0xa717ea2bb4c9ea8fU, 0x2eb619ebc90440b2U, 0xadea2990cbedf4efU,
  0xb1e7c4f20bf5b8dcU, 0xdd112513fce3f6c3U, 0x2d5cbf5bedacbbdU, 0xccc8fcf5d801c80bU,
  0xd6bde705ccc9cbb7U, 0xc2d61207e8eb2508U, 0xceea0eecd8aebcf0U, 0xcb18ebaffcc5c7c2U,
  0xd3f3cbd6ecab22c3U, 0xa4f5a91b8124360aU, 0x21d0250c02cbf7faU, 0xad281eb6d1150d1aU,
  0xdae9e52003e1f0d4U, 0xedd1cc04bcf4f7f7U, 0xe6fafa0536ecd4ffU, 0xfffadac5f703dafcU,
  0xe9100c07f9fafffbU, 0xea0af622f5fb0118U, 0xf8fa0416fefbef1cU, 0xc001ccdfafbe210U,
  0x61df80703f3000fU, 0xdb00f8e20bf0f51eU, 0xfc06022df50ad903U, 0x1801f3c80205d0f1U,
  0x1c07d8fffa01012bU, 0xef09e2e12e0afa1dU, 0xf10b02edfcea1bb2U, 0x4fec9fcfb0202f1U,
  0xf5f1f602f8ff02b2U, 0xa404e6e4900504f2U, 0xf31b04e6def916eeU, 0xfe06e7020608f90dU,
  0xf1e3e300f7e702c2U, 0xc808edd3810804ffU, 0x141bfdeedef843fcU, 0xf3fd15f907071703U,
  0x1e2040304f9fcb2U, 0xdcffebc4ad19f611U, 0xd9ec0206e90fecb5U, 0x19ffbe030204ececU,
  0xf7a5f101fefef6feU, 0xc7f6e9e5eef80508U, 0x3f903f90626eed9U, 0xcfdcc0afa00e717U,
  0x59bfffd01eaee04U, 0xc0fcda08fbecf102U, 0xfaf605f7f819e7c8U, 0x280208260f01f712U,
  0x24cf0cfd0104ce08U, 0xcd04e90304fafc08U, 0xd3e5ff0b1832b00fU, 0xf32f22012b0ec0e4U,
  0xf4fa19e8d6ef10ddU, 0xffe9fbece1daee17U, 0xd8e2cbb220ca7fdU, 0xc90018ec1534c15bU,
  0x8132f7f8fbc437f6U, 0xde44e315d4181ab1U, 0xc12b1ab526ebf304U, 0x2116ddc516f60a09U,
  0xa208bb3bf735b6f7U, 0xee4f2b2dade1eb0U, 0x13f2cfcae5d9dfc4U, 0xdd34dfd92708dc0aU,
  0xba0316d8fcc00b17U, 0xbed125d8e3cdda26U, 0xfbd02eb9dabcf201U, 0x2d0118a20bc9caaeU,
  0xcd06e0fff215f204U, 0xc4e4f6101ebf2ee9U, 0xc7c728e6e3cdd2faU, 0xc704dffede26b9faU,
  0xf8f10a15351efae3U, 0xb711082bd6be03d4U, 0xebe515b7f7bad7ebU, 0xbae4cafe18e427fdU,
  0xfeed1bfce9f1d50cU, 0xd2ef04d3bc02f0e2U, 0xe318d0b94dd1c8b8U, 0xf52de0a4dfc899ebU,
  0xeadfbccd16190901U, 0xe61902efc8f814f6U, 0x260ae7c01f0ecee1U, 0xcac30bcbea12dcddU,
  0x4dbbd0323f40fdaU, 0x1feab82129e0fce4U, 0x15fdfdeaf6d3f4e7U, 0xe800ea01eef609f1U,
  0xffed190400fdfee1U, 0xe102ea08d1f6049dU, 0x120bf8d500e50acaU, 0xfa05210a03f90b0bU,
  0xfbfb2204fc00efbeU, 0xfa0fdef7cdf40191U, 0x10f3fcd8edfd1efeU, 0xff00fb0ff6040e0cU,
  0xf4fa1d06fadcf2ccU, 0xde0bcbe0d4ee05c5U, 0x6fa03db21edfc03U, 0xbdf888f80102e107U,
  0xfed21506fefbeff0U, 0xefc1a201a03f717U, 0xa0a03b0fa26d816U, 0xa6f6f2fdf603211dU,
  0xedcc0afe03fde7f6U, 0x7f414110bd5040fU, 0x907fc9f12100723U, 0xa5f5e8f7f1fe0926U,
  0xc5ce350703f9f1f5U, 0x13ff29011ad0ff28U, 0x81e0fb0edcbce932U, 0x1cf5c5fc0a03c8cbU,
  0x2049c40802f0c6f6U, 0x130734d409f7f013U, 0xddac012509a6cf3cU, 0x12ffead9fbf793e7U,
  0x2d47be00040ecd16U, 0x18ef2d1605da0201U, 0x9d91fd1d20afc740U, 0x150716d3effe92e5U,
  0x1f4ed8f90006e315U, 0x25fe1d1642fc1001U, 0xf41203fde9f202bbU, 0x10fc13e500060acbU,
  0xe4f5cc02f8ec06ceU, 0xfdffe3e3cc27fce3U, 0xe5fc01f625f7f81aU, 0xe010cefffefeedaU,
  0xe9f3c3f909170dc7U, 0xddfdcd18ca14fccfU, 0xe8faf80ffbe6d1b2U, 0x120229effd03ead5U,
  0xfdeae00701ec14e1U, 0xeff204dcec38f7f3U, 0xfa0108e8ef06eeU, 0x15fd08fef309f3f7U,
  0xd4fcdaf805f8e10bU, 0xcf9e0d7e0f310e8U, 0xd10d08f60003042fU, 0xfd06dcc20503f2a7U,
  0xd8e1cbfe09000bd6U, 0xe06cf19ebf5f9b1U, 0xace70005def213d8U, 0x1f000bf20408e78bU,
  0x23fdbdf4fbf702d3U, 0x7fae2c8d8f9f2a8U, 0x150606f60c1318bbU, 0x28fb0907f7050c0cU,
  0x1938eafe02f709bcU, 0xecf0f8ebea0a04e8U, 0xe30204c9171e3634U, 0xf5fe1bf402fa0710U,
  0x1d080c00fffc0181U, 0xdfece4fcebf700dfU, 0xf31ef6c2d6e203f3U, 0xd60320ed0207f200U,
  0xd0fa240802e9eca0U, 0xe9f6eeab0ad000ebU, 0x4b504ff5d02de0eU, 0x7fe110c05f781e8U,
  0x10d5d7f8fdfdeb12U, 0xf8170665fa04f913U, 0x3ac001144505f211U, 0xb0528ca07fd88e2U,
  0x1dbc9fc030fe0fbU, 0xfa19f129f8edf7fbU, 0x12ce09334ef6f00aU, 0x330726e7fb0681c5U,
  0x2ce29e02fef70232U, 0x11d310b1ce6f8U, 0x170afed432fb0b16U, 0xd8083cb806f9fff5U,
  0xc2f6edfbf8ffc7c1U, 0xf816ed42e205f3c4U, 0xeded0bed2bf4011aU, 0xdbf73abbf2fff6f0U,
  0xc0fbddf8ff28e3caU, 0x1118e62feb01fed8U, 0xdd130af82ee50533U, 0xc2f612b90508efdbU,
  0xd9e8f80400fee0e4U, 0x516eb45e40bf5f7U, 0x2d30fce5341b1fcfU, 0xfefd320e13011813U,
  0xcd020f01ff1518faU, 0xcb08fb37bbf40bfbU, 0xc230bf424eb28fdU, 0xfaf427060cfc27e9U,
  0xee1d210cf5100efbU, 0xe2080cfec6130bfbU, 0xdd0bfde54412e329U, 0xa03ec1704fd2ef5U,
  0x1a0b100705f531fbU, 0xed050225c602042cU, 0xe1a6011635d9b208U, 0xecfd4ee306f8f4fcU,
  0xe9422cffff2ff521U, 0x70df523fe07fadaU, 0xc4a9061c18efcc0eU, 0xafa29d40c02e014U,
  0xf726f309080ce303U, 0x10709eb12fd06d1U, 0xf788ff133ee0d4feU, 0xfd0213d702f6f0d3U,
  0xf02a03ff021df431U, 0xecf8fd4a0b1109d0U, 0xf70d010be9ec171aU, 0xfa06270005fbf2c5U,
  0xfdef12fc022b0b21U, 0x2b05fce3f9f2f8cdU, 0xeaf806fbeef6fc06U, 0xf4f73bfa080204d8U,
  0xe3ff0f0000fffce3U, 0xf612f0ecc7ff07c1U, 0xdb090600f40409eeU, 0x8fe16fb06f8fccfU,
  0xf3ec0b07fd1507e0U, 0xe515f8edd80800dbU, 0xdd26f9f4c00a231eU, 0x35fb19c9fa01d9d1U,
  0xedf7b2ff081c41feU, 0xd14fbcbc20e0cb2U, 0xe1edf9ebe4090b1aU, 0x1c0116810703d3bfU,
  0xed03a606fc0c38ebU, 0x315edcbc9170389U, 0xc615f6ecfd1a1ae5U, 0x1301e5ad0cf5f7caU,
  0xdef2ce08fcf755c2U, 0x919d4edad0d059dU, 0xf111fc8bf1170c0dU, 0xce03ec0dfffa06f6U,
  0xb9db0e01010b03b5U, 0xdd0615edc5e5feb3U, 0x30f06aaea091428U, 0xdfff07e4fd030bf9U,
  0xcaf0f605fffbfc83U, 0xefff15cbadee0aceU, 0xe30ffbca07020c0bU, 0xe6fe1801f6ff0ce0U,
  0xc301f702070607b7U, 0xec0f10daae0601c6U, 0xf80c0300ff00ffe6U, 0xe703e5f40505eb01U,
  0xdcbdf50505fff207U, 0xb4f6ef0d0e15f70cU, 0x4fb02bff20e0c07U, 0xb6f9d0fd03fe1604U,
  0xbec20e03fcfbe2edU, 0xa700d3f4f4e5fefcU, 0xf22605ace900210cU, 0xc1fe3cf903050a06U,
  0x96c12efb0002f4edU, 0x81f699f3bbfb02fbU, 0xf903fdfedbffeee6U, 0x17fed8e0f504f703U,
  0x8d4f3fd060fdb10U, 0x9042809041cfc1bU, 0xfdef020101edee17U, 0xfafff1edfa00f017U,
  0xfcc8000702f6da1bU, 0x120023221804fd12U, 0x11ec01f60308f5eaU, 0xeefc47f8f804ef29U,
  0xedd11605fa05c412U, 0x3fa0b21ef00fa09U, 0xace50714cef2efcfU, 0xf5ff2fc304f9d805U,
  0x21ddff707212913U, 0x1f1fb8b710ef06f9U, 0xc9d807f500dee619U, 0xddf4dbbd2213d1f9U,
  0xed09d80bf516f409U, 0x1a2be81f09d903f2U, 0x7f3c06041b152bd4U, 0xffa19251cfd1539U,
  0xebea15fcff14e8f7U, 0xd02ec519e2f91f0fU, 0xd0d7f5e793e703d1U, 0xed0bf2f70b01fde3U,
  0xfe1ae209002303c4U, 0x1734039ece02fdf4U, 0xdce308de07ebf307U, 0xd60908f507f4ede1U,
  0xe22cd8f60207e5d6U, 0xe82e1b31dedbf4ebU, 0x661f0a2e403ef1c6U, 0x1f0810f91cfc2632U,
  0xef92208fa0bf532U, 0xfa3614172ef71f22U, 0xd0f4fb08bddc21f4U, 0xedf366f30f08d1cfU,
  0x1b0db80afb155d0dU, 0x4422b39304f1060bU, 0xf2bb07e7cdbdbf12U, 0xee09ddeb1d00e5f4U,
  0xfc10d8f3040e0ce9U, 0xf26e91804e7f901U, 0x602cf8daea0cd1dbU, 0x205fa35060d403aU,
  0x10250b011bf4d9U, 0x1120f1d4f6ff22f5U, 0x1513f2d918130815U, 0xd307f1d8fd01e5fdU,
  0xb310d50efafb01dcU, 0x100d2e0ff3eaf7faU, 0x109aeedf4e204U, 0xc803e7c3f9f7e7e5U,
  0xc802ef02fe0626c2U, 0xee0d0211cec3f8cfU, 0xddefc507fef006U, 0xab0d1fb202f3eef5U,
  0xe2e4cefc100719c9U, 0x17020cf3e7d20505U, 0xf0f108f21afbf20dU, 0xf10eeb0801fabf13U,
  0x2eec8f4f8eb14faU, 0x80e3608f8e00808U, 0xfbe00eeedf00fb30U, 0xdef00aebfaeecddeU,
  0xf08e70bf0fd06e9U, 0x160a220205ac04cdU, 0xfed4f8eb0de01812U, 0xfcfa09f202ffdaefU,
  0xe0edc07f5fc16b5U, 0xfb2528cfe395f7c4U, 0xe413f0c210190d14U, 0xccf60b050800cafbU,
  0xfb2f0f01fff541f7U, 0x3823ef17fae60308U, 0xdee6f0e9ff08151dU, 0xc4fc140402faf5efU,
  0xfffcfff1010f69b7U, 0x1a23f0df13f3eaf2U, 0x6e1fc120a060e09U, 0xe2f611ebf4ffe2eaU,
  0xdf0a0900f2032581U, 0x70dece301da03e6U, 0x22282fc7b3eaf9d2U, 0xdf35d21d23f916c7U,
  0x8c0adf1037e70d02U, 0xc6b9d6b6c6b4070fU, 0x8ebac9ada7bef727U, 0x5d8fc18edd6f7d1U,
  0xec1ec9d0c0f41fe8U, 0xf0da0b20daf435b7U, 0xafd03702ede105cbU, 0x6c1f021c8cbee2dU,
  0xd90ec6fad312c6f7U, 0xeb39d615d1bbe5ebU, 0xf10a02b700ece783U, 0xd1fff40d243ce1c5U,
  0xe1d5d00f40f6d085U, 0xdfefc5d6a1dc2ca5U, 0xf7b2f7d2aab6d6f4U, 0x1fd71de6fac3d1dbU,
  0xe0c2dcef29f8dddaU, 0xfaecc7da81c4e0c9U, 0xf6a613fbdef7f9e9U, 0xf7c9be02e113dadbU,
  0xbff6dec8bce0c80aU, 0xfceaa5facfff2ee9U, 0x14150ce1cb0ab4b3U, 0xb2feff410c2d700U,
  0xfb3bd0fb04d6a8U, 0xd51ed91c0e1af619U, 0xd7dc30eafdffb30bU, 0xe7000eef312a001dU,
  0x9391e23ee2b80c21U, 0xe636c5c82510cdedU, 0x170de5c90af8fbf3U, 0x1d2a2bb5f5dae5edU,
  0xce95bb31f1f819e5U, 0xc4dcf4ebecba19fcU, 0xd6e9fe0419dad52eU, 0xc9fe15d0fd0accf4U,
  0xe0dff070e1f0feaU, 0x27092a06fcfdf3f0U, 0xcbf707ffe5f5ec23U, 0xb40626b20601ed23U,
  0x6063008fa0c33dbU, 0x200d1eeaf8e203d8U, 0x4415faee15141018U, 0x9ffaf4c90cfc0b4dU,
  0xcce31f06fc0624daU, 0xf0afc27f80114f6U, 0xdfe0fd1305d2fbcdU, 0xdcfb27090df607cbU,
  0xf73add070319f90aU, 0xf5fe1d09a41eed02U, 0xf1e4fc0f0fd7fa18U, 0xa0ff16fefc06dfebU,
  0xdb25e007fa0d0607U, 0xf7f713128f0df8f6U, 0x21fe07e62c592ec9U, 0xd4070e0409061901U,
  0xb320ecf909f0eae7U, 0xa9f80043810e0de9U, 0xeee9001705f20814U, 0xeff52505feffe3ceU,
  0xf3d5fc0a0c5201U, 0xe1f7e8dce415031dU, 0xd1ccfd36f8d7fa1dU, 0xec0764c809fab3c0U,
  0x51bc408050f5500U, 0xf507f3e9fbcdf9f2U, 0x611ff7de0a09fcc0U, 0xa40040cc05021d2aU,
  0x85e81409fa1cfed1U, 0xc002c110ccdf0ad3U, 0xfc39fdfd2f182901U, 0xf402cee60b02201dU,
  0x1d315fafb15d20cU, 0xa192900f3fe1bU, 0x110000929fffb1dU, 0xfffdd3d407fffd0aU,
  0x19da01f8001bcd11U, 0x25f71e1e16f1fb0cU, 0x2701ff1c3af4d9fcU, 0xed0721cc09f8fdf3U,
  0xebdff7fa01fbd712U, 0x1b110e2816030110U, 0x81ddfb0cf101f310U, 0xc06add205f9c1e1U,
  0x1312fafe0411d30aU, 0xeb1300f5f3e4f4f3U, 0xf1cd0310b9e9f024U, 0x1bf906d60408bcdcU,
  0x1f08defcf90bda0eU, 0xe3fbeebb09ea09dfU, 0xc5acfb2505c5d503U, 0x220725de0a01a1c0U,
  0x262aacfd02e5d705U, 0xdfe00dd05fe01d8U, 0xe008fa0b041e13dcU, 0xeff9d921f5fb14f0U,
  0xfef110fd06ffffe4U, 0xc904dffae317fef8U, 0xf40f0304cb0920f1U, 0xf1041102000207f7U,
  0x6f606fdff1dfab6U, 0xc100dbcacc000eefU, 0xdaf1fd01f7e400dfU, 0xfb0528ec0404f2bfU,
  0xe212d4fff9f1d4cbU, 0xd3f9f0e5c11bfdeeU, 0xe11005f4f00524daU, 0xdafacb0efefe0001U,
  0xf2b406fcf70cdb04U, 0xfd0a11fefee500eeU, 0xfffb06e42a120cecU, 0xec022e1303fe07fdU,
  0xf7c105ff03fad004U, 0xf61403140b08faffU, 0xc0103ec0c0814ecU, 0xe7fc260c00fd000cU,
  0xbe1106f911cf00U, 0xfc1d0f130510fc0eU, 0xf40909ccda00fecfU, 0xc5fbe1dffe000808U,
  0xece5f200080decadU, 0xd06eddfedb601e6U, 0xed08fbb20102f0d5U, 0xc302101501030704U,
  0xf2f91a03ff13e381U, 0xee09e2e2e3d4fce1U, 0xe70104d10cecffe2U, 0xc9fb26100706020eU,
  0xf4f808030116ec8cU, 0x307f6f3e3e806f2U, 0xe3ecfa07e6ded41bU, 0xd501dba9fdfec800U,
  0xf325fc06f7f6b603U, 0x2f010b0607ea0111U, 0xdcfd051c10e3d83aU, 0xf106d6bf00fae722U,
  0xc1b0afc052cb417U, 0x49f6011116e3042aU, 0xdff1011701ddc641U, 0xfcfd3ec30402e014U,
  0x1b1bff02fffdb120U, 0x4dff13241dddfc24U, 0xf8e9032381f6f3d3U, 0x2503f5e9fefbf0abU,
  0xeffeb9fdfcebf8fcU, 0xd30fd787ed0200d2U, 0xdfbef924e7d9f01eU, 0xb0309da06f8dbaeU,
  0x28fda4f806f2f01aU, 0xdf0ec0f00922f5d8U, 0x5caff1a26b7e2c4U, 0x120612d80a06dbcbU,
  0x2ee1bdf806fbf315U, 0xd302dc062109f4d3U, 0xa0501d7e4f624abU, 0xeff8031d02041218U,
  0xd5c00a0708f0d1acU, 0xdbf7b6d6caf90cffU, 0xe51bf7f9e6efeff8U, 0xfdfa0c09ec0323fdU,
  0xa5f1fbfd16daa4U, 0xfa00cab2e0f506f8U, 0xc901060207ebf204U, 0xf90406e506f9efd6U,
  0x1393f203fa0dd3a3U, 0xec01ead5f9d7fdf8U, 0xf30504c4dc210b89U, 0xdf02e5df02fd0203U,
  0xc2df11fc01ecdcfaU, 0xc0fa16dfebcf07e3U, 0xf42fffe00c1618ffU, 0xb30801d50df91e11U,
  0xe4ea11f8f921d805U, 0xc80dedfe01b2fdecU, 0xccf6fef6e409ffa9U, 0xbff928ae06f901f1U,
  0xcbf8f80800f8d903U, 0xcffdddf9faee02ecU, 0xeed407a1f10c34eeU, 0xcadaacaa16dc01ddU,
  0x960210e01113cda8U, 0xdb0bec09cbb510dcU, 0x16d410d52b08e5ecU, 0xcbe0f8b4e8d5c0d8U,
  0xb5eb93f020db01b0U, 0xc5d6d31bded81b0bU, 0xdac11da408010ae1U, 0xf0f904e3faf7a5b7U,
  0xdaf715f0e8f1a7e1U, 0xad08e5d5c79502b8U, 0xd7d3facb4726100cU, 0x15d6e3b42012e4f9U,
  0x810bbef6faebdbd0U, 0xb1d69d22e8e9eef0U, 0xff7fcbc03d5c1e0U, 0xe803c3bde31fedc5U,
  0x9cc1121706ed0301U, 0xe8e8b7f4eca418ddU, 0xfbaf1fca0807f70eU, 0xd4092fb5e623a5c0U,
  0xcfefe315da0cb8d9U, 0xaa1a90f419e720cfU, 0xbac9200dd616f8e6U, 0xec1be2ec26f9d0eaU,
  0xc1e3e6ecf1c62502U, 0xe2d1bcc4f7dc23ccU, 0x139cf39ff9d6bf92U, 0xeb04e3ca180bfaf0U,
  0xc5c9ffebf6bafbf1U, 0xd0fed60feef90cbcU, 0xca1ed436facdbdU, 0x191b30dad812a1d8U,
  0xf9d3f305ec1bfab8U, 0xeceec8cbdef208aeU, 0x12e8fec44747d43dU, 0xc11302bf1c19cfc9U,
  0xd5b90dd20611efbdU, 0x18c7efe3bbbefc1fU, 0xefa2fef74c46c3cdU, 0x982d19d8fd44f2f7U,
  0xc1dc25e827d217f0U, 0x1cd6c5d8dfa2d6beU, 0x99aeddfd2d142dbU, 0xe3c0c390e40dcf2eU,
  0xeb2a0a0b1302c6efU, 0x29070c24ced5c2ffU, 0xe700d1b91bc7d32bU, 0xd42cf997030ad913U,
  0x14188104ec40def0U, 0x1d2cce080ed90edbU, 0x94a9ead6df27d3f6U, 0xbff5f9ac2914bc32U,
  0xb7f78fe3361f2dafU, 0xdce3e60e8c8311d6U, 0x27b842e7d82e04aeU, 0x85373c85e836bdd1U,
  0xc403bb22dec727b6U, 0xa923aad91e3938a0U, 0xc0abf009ccdde9deU, 0xd516fff20023b2acU,
  0xa6089dd9cfbf1ecaU, 0xd5f2e12bc0bcb6a5U, 0x140829d718be2f03U, 0x16080102022cb083U,
  0x7dbe8c623e4ba88U, 0x4e7e5e8a902e7fdU, 0x2006d7a1feb40ea7U, 0xb30e0104d33fdbe0U,
  0xb5f9c526d1020802U, 0xc214d9140adf28eaU, 0xf5240007fe213198U, 0xfa0be501f00a0222U,
  0xf7f44f08edff0c19U, 0xe6ff8c3c10d808c9U, 0xdf140fdcb40c1081U, 0xe10342f9f3fd342bU,
  0xeccf4603050413dbU, 0xe8ffc30700bdf5c8U, 0xf8290ac906232a82U, 0xf1f4ed04f9f6003fU,
  0xf4eb620301cc05f1U, 0xf218a0d9f1cbf2dfU, 0xe4ef10089f05af04U, 0xf105900c040fe725U,
  0x12fe16f2f4e9f60cU, 0x410ae8ea09dcf54cU, 0x5f5f510f7e19917U, 0xe508d6d8fd07e92fU,
  0x12c806fd0419d21fU, 0x2a0ddf131dcae624U, 0xf2ee10f011e4a510U, 0xe2f33cfa09f8e745U,
  0xfad50afa00f0c901U, 0x1a0dd92d11c6fb30U, 0xc7e2031adcced9ebU, 0x1bf93dde07ffd6a0U,
  0xd098e09f8033101U, 0x14ea05c20604ebf6U, 0xcbdd0a070de6ce02U, 0xdf318f20103f4a1U,
  0x1d0f81010ffb3af3U, 0x200fee304f8e7e3U, 0x8e5031241f2ddf2U, 0xbf91cebecf216c3U,
  0x405bff60ee72befU, 0xfffbf6270be7fdd1U, 0x1ae4cfbe2111c506U, 0x3413f10bf821b52dU,
  0x1bf7d8221ebbe881U, 0xc3c5032ac2e33018U, 0xf2c0f5d1fe0b0dc4U, 0x8daced3c826d2baU,
  0x98cb0ef017ee10feU, 0xc71df70deeed1310U, 0xf52e23fbcee8f124U, 0xb8322dafef1b0ebfU,
  0xbea50bf1d7ceee31U, 0xe7caadffe0c802cbU, 0x32bd1bf1ead0d401U, 0x80bc6b5ccf80632U,
  0xecc0d709dfdad5d9U, 0xf11cebf8c9f5c8bcU, 0xdd6cef130dfe306U, 0xf42b02d12731e31aU,
  0xf4be9830bee8e2f0U, 0xea1eceeac2a42facU, 0x1eef08b4260b83f9U, 0xe520daf0d517ad10U,
  0x1392b5d423b5a7f3U, 0x1d0fc1cec809f5c5U, 0xa7bf0c0efd1ec210U, 0xb70702ff0dd4eaf9U,
  0xdcbafd0f8c8eca3U, 0xef3eafff8b512e7U, 0xd6b6bec011f30de1U, 0x10f8f5cc2108c8cbU,
  0xfbf3b2e90ed514d1U, 0xc7ec15c3f5071ac4U, 0xbceffaa1e724d5dcU, 0xa12c5e615cef6eaU,
  0xa507c3e638d6e4e7U, 0x2a25e031dfd0e882U, 0xff1af1bdd7f323ccU, 0xc101c5e621f1244fU,
  0xd90723dffdfa04fcU, 0xc6f8ee28b1f5e2f0U, 0xddfb2089d6cf1fb9U, 0xab0be6def4dae90aU,
  0xcacc1cff0104fdaaU, 0xe9f3d1da92a3f5c8U, 0xb6fc16bccdcde818U, 0x9622eedef010c1fbU,
  0x950fdb0f24da02b8U, 0xcbf0e1c5ca8dd4e1U, 0xe1d506c5f1c7e215U, 0xd9f9e309f303e1fdU,
  0xe6e30bf30c3cc9eeU, 0xdefa3a0681a7fee4U, 0x10c0068c12c1f8ddU, 0xd40e33c91225d008U,
  0xbee3ec11d81ce5baU, 0xd9210012a3d426fdU, 0x65bcdabd0bd5d4beU, 0xe8df0c0be518a3b6U,
  0xf3219712e52ff9e7U, 0xb7e71d1beab60a0dU, 0xa1ef08f2ba9bf530U, 0xfa1cb3d41ddbc2bfU,
  0xcff6b3e3e5f72cccU, 0xc9ebf4cfc0ae0ef1U, 0x8ae113db78ceb7deU, 0x9dea4ec5fe1fc7f2U,
  0xc7d6a6232143f6ceU, 0x14fcfb3de3e0fdfaU, 0x4793ebfae7febf1cU, 0xc1f23c9f1ee7f80cU,
  0xd0f7b4e0122a08b3U, 0xdf1eff1108ecd5f2U, 0x2315010446f10e15U, 0xfb00f5c003fdead5U,
  0x16baddfdf91d0c14U, 0x1b072a6a08ebf3fbU, 0xc1af70b22c1e411U, 0xfcfd0ad50b03becfU,
  0xfed4e5fef71d000eU, 0x140b05fe12fa0408U, 0xeab5090712bacb1aU, 0x3fc5fd6fe0981bbU,
  0x5fdbc00051bfd00U, 0x2cff1bfb0c02fc21U, 0xd027f7fe2c0e0513U, 0xfffcf9d4fe06ea18U,
  0x1325ff00fd0cf0faU, 0xf60039f7e4f9c7U, 0xc10701f001e0e414U, 0x5fd04dffe02c214U,
  0x507fb00fa16ebefU, 0xfdfbf00506dbfce5U, 0xced1fbf9ffe9d418U, 0xfefd5e0000fbded9U,
  0x625d8fdf600ebf8U, 0x2ebebfc03f7fedeU, 0xeb1bf80e301509feU, 0xec08e5ecf3fabf00U,
  0x1002000406220a01U, 0xf1f80c3e09fafef6U, 0xeef9040127cf0deaU, 0xee02f4e5f7feb1f7U,
  0xf8f5e4ff00141cf2U, 0xe00efbfa06f7fbdfU, 0xd3d0fe1014bc03fdU, 0xfe46edf908c8b7U,
  0x91bd1020103270dU, 0xf3fe0be21611ebf4U, 0x3fbd9fef2fb19U, 0xf60600ea0000e9fcU,
  0xfd15fb06fb04d0fbU, 0x2c0e0a0cebf7ffebU, 0xf90901de170512daU, 0x5000504ff00ec05U,
  0xcff60404fbf4fb01U, 0x4002104d30101f7U, 0xd2f005e214ee0107U, 0x8fc1eea0404dfecU,
  0xfcecd2fefffaeafbU, 0x601ff16deeb02f4U, 0x3f8fbb91009001fU, 0xd102f3f4fe010dffU,
  0xb8020400fdfd07baU, 0x290b2a1afff900e6U, 0xff0102c1240a08e9U, 0xe6fd0504fc050b07U,
  0xb6f22300fbe613b7U, 0xe010b16f72101bfU, 0xe7fa01cb131606e9U, 0xf604170103fffbefU,
  0xd1efff02fcf70ab4U, 0xf8001914f417f4caU, 0xf6e902c606fcefffU, 0x9dfa0201000002ffU,
  0xbf1b050000fd15e9U, 0xf5fe22fafde905feU, 0x131cfd813b14100eU, 0xa903010108fb0e18U,
  0x31818fb04ed1bdaU, 0xd7fbf639f607fb12U, 0x12602d5ec0609fbU, 0xc701110410011024U,
  0xeee70dfa04ee14d6U, 0xd3f8d3eee009fd15U, 0x905fa0860250412U, 0xfa0af8f2f1f9f213U,
  0xe60304090a0c1b0aU, 0x1502bb3e0c19fd05U, 0xe9f9060d181315e7U, 0x30137f1fc0afd0cU,
  0x7e2fe06fa072831U, 0xa11cf011425ff16U, 0xdae8f61e4b1ced2bU, 0xedf80b0900fce7f6U,
  0x306db08fa0f1c1dU, 0x2a072d2f2201fc0cU, 0x1210fb814bfdfdc4U, 0xa3ff3ffee2071e13U,
  0xa7d5fb07f7fcc3f0U, 0xaef1d344cef3f714U, 0x1944088cfcd50bd5U, 0xb8fc52e2f9031c22U,
  0xddf92cf6092093f1U, 0xc9ecd3aad206013cU, 0xff1904b94ed5e62cU, 0xac032ce6000919efU,
  0xc50addf6060da022U, 0xe7d5173eeae30036U, 0x32fdf6122cd4ed0bU, 0x1c07232e17fa23e4U,
  0xc29faff0206b52dU, 0x16fac71710b9eca5U, 0xe6d5fd1cd2b2e92aU, 0xcf3541f0ef818b9U,
  0x391af20009199d01U, 0xf7e6b4e825c6f294U, 0xe9e2f80b3fc2d839U, 0xa0a311206fbf0d6U,
  0x3524d8040509ba02U, 0x2af3dc4525e5ec92U, 0xbed1000904e0e4f1U, 0xc9e0bd03eddae5f7U,
  0xdfdad9fadcf6dc0fU, 0xfc1a5ce9e40b1ec5U, 0x2b0f12dc12facc29U, 0xccf4e3c124280622U,
  0xb0edebdc0926e1eaU, 0xb902ed01d4f102cbU, 0x3deb1aaddf8e052dU, 0xa11beb271fdac4e7U,
  0xfc2e0a0ae60cdaaeU, 0xe3d9fcf184811aa1U, 0xc4ceefeefecadad8U, 0xc8e7f71bdeffb6d5U,
  0xf01813f8143d1fdeU, 0xcb2000efa90818f1U, 0xdbdb0a01dff9dc39U, 0xe2fd8bd50621b6e9U,
  0xe827cc1a0f470adcU, 0xdbfb2518b30009a6U, 0xd2f4f2ebcac516fbU, 0xa0eee7fae4ef07e4U,
  0xfc0fb4dbf2f7edbfU, 0xae1dc09ead511edU, 0xc1c4f6badb02c5feU, 0xede8f0c91803add4U,
  0xd4b818ec06f8fcU, 0xfedef6f705f510c0U, 0xa9fee6ddc9f5d3dfU, 0xbf1505f416ddd5d1U,
  0xe6e8cdf7eadbf2e8U, 0x2e0b5ebbbb0f4f2U, 0xb507d8cfb9bacdfbU, 0xbd0a03c40efba6e4U,
  0xf429c803fbd5f4d1U, 0xd413f4e8b802f1a9U, 0xf0f3f50226cfff2cU, 0xb5f71ec213f50613U,
  0x3ed52faf605cfaeU, 0xe91012f3b6f6fe07U, 0x5fdc08b82d11c510U, 0xc8f9ebbe18ecea3cU,
  0xbee71ef10e1acbdbU, 0xef44cc44c6c1fef4U, 0x81d80f07e788b814U, 0xe1f50fe40f07abc6U,
  0x5626c6fbf42bf220U, 0x45353fd00edcf000U, 0x5050bf31cf3f6daU, 0xb6fa70fa21f2b24aU,
  0xeceb2e0dfef60fd3U, 0x39fe18e7c8fdf3U, 0x1b010b9323f3f6fbU, 0xd00de0d50dfdeff8U,
  0xb9d80509f225e783U, 0xc24bd43fd7d405ccU, 0x90f60630dc8caf11U, 0xe2fdefca1b0ea5aaU,
  0x5ff8c301f90c1d0cU, 0x412634c9e4e4fdd6U, 0xff18f700f818203eU, 0x30d46f5fcf7fc32U,
  0xffb3001011d46efU, 0x4f16f11ae6dd06edU, 0x1a060db058fab423U, 0xb300dfbe38090464U,
  0xbfd515fb051f7fc2U, 0x372aed75dddd0ad1U, 0xc61c0401d0dffc54U, 0xf3f304dd12f4ebedU,
  0x2b2de110000e6aceU, 0x7c2719bf08e6f204U, 0xf2f9fb021b1207f0U, 0xfefe05de00f909dfU,
  0xe90ef4fefb00dd9cU, 0xec030622ba18009bU, 0xf6ff051af8fc16cfU, 0xf405d9da03f707f7U,
  0xdefefdfe01f6dbcaU, 0xd4fae9e3be0d0a81U, 0xf50e071bf40402e5U, 0xbfe0fecfa010ed8U,
  0xe2e8eb0304f9d1f2U, 0xcf05fde1bd11ffbdU, 0xcee1fe0ef41ce0deU, 0xeaf7e7e80807e315U,
  0xd900ecf5fdf60f30U, 0xfcfd17121600ff05U, 0x100e9da39f804U, 0xf8f8fbebff05fa07U,
  0xc3f51407f6f02915U, 0xe01005f4070aff01U, 0xb9fe02f2ed1a05eaU, 0xf3fc04effd05f61fU,
  0xe20216f8f9fd1418U, 0xd005f7f601fef9f9U, 0x2f4071deae2f126U, 0xdfdbe0d02fdfdebU,
  0xf8e9fffd071c02U, 0xcfd2fee0c29f905U, 0xfc0ffc04f0e80505U, 0x800e80d07001708U,
  0xe6fff0f9011325fcU, 0xf0f8120a020d050fU, 0x509f7faf0193113U, 0xf80613f10908ff01U,
  0xc7d00202f9e433f3U, 0xbbf2e9f9e20f0106U, 0xd0f8fa0e16ad1815U, 0xfd08cefaff00f2a7U,
  0x314d6fa08faecf6U, 0xc11030fedee08c2U, 0xfddbff09f0aaea12U, 0xefd21e7f501e6e8U,
  0x1e21c10603daf80cU, 0x80b01ba04071de3U, 0x23c7f63845aaf72eU, 0x24f6daf20000f6cdU,
  0x1e25d2ff0c090115U, 0x39060f3e0c1a0cf8U, 0x510fc00081603d5U, 0xd608f3d104030200U,
  0xcbf313040c23c9e5U, 0xd101c1f4dcebffb9U, 0x1f70207d303cedeU, 0xf0061ce80e0817e9U,
  0xe30314f9ffecc6b0U, 0xd4f9c5bad1061181U, 0x5eff72f1500c9f4U, 0xfcfbeed8f90424e9U,
  0xf190e0404fcd2c2U, 0xd5f4cf03f1fe069fU, 0x3de060f2ffdd3d2U, 0xfffc06f20af3e926U,
  0xff03e5f80706140cU, 0xf812112610e3070fU, 0x1eba0325dee6c6d5U, 0xe062f020907f213U,
  0xfceff70c00001711U, 0xff17f4fc1904052dU, 0x2c9ef70015e0d3daU, 0x505c6070604e81fU,
  0x2fddaf8fff520fcU, 0x8171d38fcf21012U, 0xed18fdf6d1fffb00U, 0xcd0407a208ff0904U,
  0xeaebf80303fd0eeeU, 0xf9f908d5f5e602eaU, 0x31404f6bbe9e501U, 0xd105128d030309f8U,
  0xeae9edfffbf711f1U, 0x602fbd500ed04fcU, 0xddfdfc00eae7e70fU, 0xd2020181040208e5U,
  0xf2ece4fd05fc27e4U, 0xbf916e9f5e502f5U, 0xdf6fb04e501fff6U, 0xe8ff140b0301f603U,
  0x1eaf401fbfffa05U, 0xf706fedfe716ff15U, 0x8f602f4e4070afdU, 0xeafe09fcfe04fcfaU,
  0x4f708040004fcffU, 0xfc0502e5f60c000dU, 0xaf302f5ed02010fU, 0xeafb01150bfcfdffU,
  0xecfdf4040007f8f3U, 0xf503fef9de15fe04U, 0x3f50103f405ea19U, 0xeafffebcfd0104f3U,
  0xfb18e0fdff1027f3U, 0x40314f9f0f4fbeeU, 0xf0effaf0e6f8dc14U, 0xee0206e2fdfdfcddU,
  0x180fe201001223e0U, 0xfa06f3f308e705e6U, 0xfef203fc0812eb07U, 0xf7011deb05040510U,
  0xedf507fd020435eeU, 0x307f22201e505f6U, 0x1ff101b546f20f07U, 0xc3030ff8fcf3fc00U,
  0xbbd61df30e0beacfU, 0x190ff065d8b5f3e7U, 0xf5d807e4f8ecc2f9U, 0xe00029f10df8e6e2U,
  0xe5c4ef08f21d09b2U, 0xd90713fec70905ebU, 0xd8b101e906d0aa12U, 0xd2f878cc1ef0abe6U,
  0xd91cdefdfdfed7c1U, 0xfd0931daccb5f0c8U, 0x6e6fb0312b0090eU, 0xf3fcf4e90c04f4f7U,
  0xe6bd04f3102722fbU, 0x190ff342f2de06d2U, 0xfde07e025d2f60cU, 0xebf15ef42207e7f5U,
  0x15c210f3fd3411d7U, 0xfb0d2304e4ed0addU, 0xddc006f504afd426U, 0xe4f54bc121f1aef2U,
  0xd0badf40be905eaU, 0xc15fcbdf2b7f0cdU, 0x180200ac4bea0704U, 0xd40d07c5220df0f6U,
  0xc8ec0ff30c1f52c6U, 0x1170449bed6f6b6U, 0xef05f5f01aead73fU, 0xe6017fdf1b0ae9e4U,
  0xf31acd00f43f50e5U, 0x3c2f07d00afceedeU, 0xd7b5f7e6f9b7ee2dU, 0xf9f0779e11f9c0a5U,
  0x822aa05f4fc2ad2U, 0x5e38fbd9cad3efcdU, 0xdbec070bedff0f28U, 0xea0b13de01fdb6d4U,
  0xc2cd10a012768e3U, 0x1e0016e8e5e6fcaaU, 0xf1f30df9e5ff0819U, 0xe9012bd60900e6dbU,
  0xedf0ef6132830e2U, 0x34fbfcf104b40cc6U, 0x4dfb09b218cc0d18U, 0xcd045912fdf8c501U,
  0xb508d90a03fb1cd1U, 0xe311ef23edf2fed0U, 0xf0ddfe0bf616f1f8U, 0xe9fa2113fb0fe3d6U,
  0xe13bfaf1080d1c01U, 0xfff31be39ce7f4e7U, 0xbef03ebe207b64dU, 0xc0f720e802fcd9ffU,
  0xea02fef30301fefbU, 0x1b04fa00e6ddf4c8U, 0x48ecfcf2261dd219U, 0xdb0d4be8f2f2e21dU,
  0xc70ce3f9000d16f7U, 0xf4eb062ef6e70ed6U, 0xeffef0f1fa052b12U, 0xc4f220f50906e2f7U,
  0xc529e20ef51f72d4U, 0xcdf808d4bf1505b6U, 0xd6d6f6eee9f0fb52U, 0xd70d3fb8faf9e703U,
  0xe90ced0d00297fe3U, 0xe4f41e14ded2fabeU, 0xede40bc31bef351aU, 0xcaf937020606e22aU,
  0xc9e2f2fbfbee5ac0U, 0xeaf81e0cb70efcbaU, 0x4fb03d807fcf1d9U, 0xd600efd60903fc04U,
  0xcbe902fbfef3ea12U, 0xd805ebf3f6f604f4U, 0xfc0cfd81e70914f1U, 0xe800040907fe0313U,
  0xd5e7fe040407f19dU, 0xe5fefbdac4f200f0U, 0xea0802aff2010cfcU, 0x100fe15030102ffU,
  0xf4e00dfcfcfaeab5U, 0xf1f4f700edf502f6U, 0xf2fffdc404fe02e6U, 0xf102eb090405f6f5U,
  0xdd01fd0103f2f7e0U, 0xe405f8f3e4fa03fbU, 0x8fc04e1f5050b0cU, 0xfd0512fdfffaf4ffU,
  0xf009fa01ff1106f5U, 0x120c01eb02f6fa02U, 0xe2f005f9120dfef2U, 0x9fbf9f500fdea04U,
  0xbfbe00202080811U, 0x120af50605f0f916U, 0xf60402c5f4fee6daU, 0xf4fcfeff0aff0df6U,
  0xe8f905fbfffb1af9U, 0xf5f71203eeeffdf5U, 0xa0702bff905ff10U, 0xf2fa040901fc020dU,
  0xf1280bfd05fc0caaU, 0xf802f21ab8fafbfeU, 0x21c02bd030f0804U, 0xf000fb0a02fb2305U,
  0xe01110fefdf7f892U, 0xe2f8e8edae0a04fcU, 0xc800000134U, 0xffffeaccffffe932U,
  0x1b4fffffedfU, 0xffffe673000006beU, 0xfffffedbfffff3aeU, 0x321fffff289U,
  0xffffed87000007b7U, 0x1b73fffffef3U, 0xac8fffff4e0U, 0xffffe981ffffedc2U,
  0xfffff193ffffe725U, 0xffffed890000035bU, 0x39bffffff77U, 0x7b7ffffde98U,
  0xfffffa8200000710U, 0xffffe02dfffffdafU, 0xffffe98afffff6bbU, 0xffffeda4fffff6a0U,
  0x173bfffffdfaU, 0xfffffda500000416U, 0xffffeaf900000593U, 0xffffea20ffffe833U,
  0x6e3000002dfU, 0x74100000308U, 0xffffe3c6ffffeee2U, 0xfffff546fffff43cU,
  0xfffffb13ffffe1a8U, 0xfffff219000001f1U, 0xffffdd3effffef58U, 0x6e900000a23U,
  0xffffe147000008deU, 0x319ffffe4f6U, 0xc4391ca9ede2ee44U, 0xfc1d090b11dee1e0U,
  0xfa03e1f10d13ec39U, 0xd6c7e30405bcd225U, 0x1dcf19200efccba2U, 0x2ad605310b4d160dU,
  0xd13a28ed14f84b39U, 0xf3f90f0602c423fcU, 0x1cf2aefb1edaea21U, 0xf70efae9ca3921e9U,
  0x2919252adedbe1f1U, 0x85170496b8d02fdbU, 0x37e1edc9f3ca08beU, 0xca24c543f01811bcU,
  0xe4dfd6e7fa3a1b16U, 0xeb25b8ef0ec10ef8U, 0x3cec34c8f5be0bd3U, 0x26e50bb9eacc364bU,
  0x26f23ac5011437f3U, 0xc323d0ba2c1be8f9U, 0x13d327a84031f210U, 0x2e1ace0929e03ad4U,
  0xe924e92d41dfe2eaU, 0xe0d82edaf4d6c3d7U, 0xe231f30bc81bd5c9U, 0xdb0cb3f8ead3b4e9U,
  0x18d71bbdde23c743U, 0x2ef525d83425f3efU, 0xc00915ec2ffcc7cdU, 0xdafe2ee2c323fe01U,
  0xf7ff04fcc4b838f1U, 0x12e10bbecf0f0d1eU, 0x5d03e30da29bfacU, 0x20cc43ca35d8fa29U,
  0x4902eefddb1ec6d9U, 0xda29c98ec6bef7d4U, 0x2eca2fe3f6dcdd34U, 0xf7f735ed39c112f1U,
  0xb0cdcea12798ee3cU, 0xde0a2f4b4a17eed7U, 0xebdbbed012e8d89eU, 0xe1eee20bcec312c1U,
  0x13b216b74602d1fbU, 0xe508db03b61f3902U, 0xfe437c5c01d4738U, 0xde101ef509f0e0edU,
  0xc7d68ad22fc6cdd9U, 0xec43cdfddcb02e16U, 0x2d3d34162de9cfc8U, 0xd5f8e0cc1e34fed8U,
  0x12e5f9f6311ea424U, 0x13f9f0dc31f902f2U, 0x61b139e100e1e21U, 0xfdfa2218eece3420U,
  0xf32aa008c8f0dc0dU, 0x9ceb341132e260cU, 0x18f2e516bcd8154aU, 0x3198fbb0bc13ceecU,
  0xb5e52a24372300b3U, 0xd3c9d10736192eeaU, 0x2205d6c822941705U, 0xc5dacb33bac3ace8U,
  0xeced092117a6d1bdU, 0x13c0cffb3ee9d407U, 0xe82b36eb27f7cd12U, 0xdbc4271ae51de346U,
  0xd72ebfc31efb363fU, 0xa8fc219bd8ca0ab3U, 0xcabaffe2deff00f5U, 0xcb1412f6d9c12a06U,
  0xdd15d029dfe6efb6U, 0xc7140a07d52c1c09U, 0xfb01be0e1735b526U, 0x18f9f528ef2b05f0U,
  0x2b26be2af4dbfc36U, 0xb3151c8cc6d12d03U, 0x3322e9c9bcf314f1U, 0xd1c373433ce3221U,
  0xb5e7bde4c9ba1de7U, 0x2bc4b4e9b2f31cbaU, 0x1acd1d461dfb001dU, 0xf7bcf41c2cf514c8U,
  0xb8e3f4e3b923e8bfU, 0xc5bcb6ebfe05bf25U, 0xe1b527d3b1b1fe04U, 0x112afd15222bd5eaU,
  0x300fed11d38dffcfU, 0x228cbc50a0e2108U, 0x2925f4fc1138cc35U, 0xb82910fac815c2f1U,
  0xf090de0be3d1b413U, 0x244aeef7ebdee500U, 0x7f1dafbce4afcd4U, 0xf9fb29e7fe0c122eU,
  0xbfd2adf6bfbf2a2cU, 0x2c06e84036cbd130U, 0xc5d5f0d6f7c11aU, 0xb01826bbf437060bU,
  0xec09f3301adc8502U, 0x1fe9fea0feeacfacU, 0x73ccfc204fa0a2aU, 0xd70d2f2ac1062035U,
  0x4149fee321937f3U, 0x2207fe45b800f92bU, 0xdcfdf9dae50fd921U, 0x120cbe291f192711U,
  0xc6fc07292b15f7e5U, 0x6f034aed5152fd3U, 0x1513f4eee4ef18bbU, 0xd411d5f6cb2a0e08U,
  0x1acdc41df7d22df1U, 0xf43ec4d5b42ae42bU, 0xe2cadc8af8f91f20U, 0xe6e83cd806cdbe23U,
  0xe0123727bfbe06efU, 0xc5dd1b31bc39c1bcU, 0xcdeef60905c6380dU, 0xf597e339e4c10a3fU,
  0xf8cd311fbef6b712U, 0xc73fc7cce5ac11e9U, 0x271ec8d0fe00ce10U, 0xce1917e50324e5f1U,
  0x3cf9000f2514fc34U, 0xf9f0c7c6d2f515c7U, 0x18e6c6eabc17af96U, 0x2db5211408e611dbU,
  0xc5c7e3e40b9b131cU, 0x1cf9dc29c1e50d0cU, 0xe0372ad0c4bd8b3bU, 0x1e0100edd7fdc527U,
  0xb9fc04dac23ce2fdU, 0xbc0adfd9000ad312U, 0xb14dc23bfbdf2c5U, 0xcbed10f316ea15faU,
  0xbf12dddebcecc7dbU, 0xee01f0f8edd8ddf9U, 0xd2b4c9fd04d90e37U, 0xc00de811cd25ba1fU,
  0xebe23aeab02fc016U, 0xf7cb02abbbde0b06U, 0xe0c5f5f43bb3341bU, 0x82acb12d8b9294aU,
  0xbc10d3cd279620eeU, 0x2d362f3adcf31b33U, 0xf520fb2b1a05b1bbU, 0xdbc82f2bcdc5c20aU,
  0xccb405c5d6e38cc1U, 0xee02ce06f6f815dbU, 0xc6b8daf8dc26b5faU, 0xd906eacb20cdfd13U,
  0xcc1decbbbbc508ccU, 0xd840ce2916d1ddb3U, 0xd50331eceb178936U, 0xd004fae815cb34c8U,
  0xbcf0d123e7f2c70cU, 0xf6e829eaf8c5230eU, 0x90cda0bcafd2ac5U, 0xc1ded6e7224d1529U,
  0xe330efd522a9efc2U, 0xb5280a05f4ecfcd7U, 0x1ddcbfb2c821b9cbU, 0xc5f62ee304bfffb6U,
  0xcacb3c32e51a01b5U, 0xe80de4fd04d1d9edU, 0xeeff27c3b71de60dU, 0x2efd0d41dfd73c27U,
  0xd442fc2aefff052dU, 0xd04228d70c1eb62cU, 0x200cc81618d6b646U, 0xdebf0006f71736d8U,
  0xedbd42c6c829481aU, 0xa11e1f9afc1c38d9U, 0xc2dcc1eb898cae7U, 0xd82a38d61bd5b8cfU,
  0x12053520f5bddbd2U, 0x1134f2092820f426U, 0x1d0122d41ccf9018U, 0x32d1c6b7d1c931bbU,
  0xce7e7e7dff7e006U, 0xe40f12bcee2ecf02U, 0x3302c4f3df1b26ceU, 0xbc073ed1e92b0537U,
  0xe0fcc8cd28c9f1f6U, 0xe7140ecd33090d04U, 0xae233d2cd3599f9U, 0x181fe5c4eaf40438U,
  0xddefff6c7dfcac3U, 0xbfe317dabdc90903U, 0x1233102421facad8U, 0xd719d835d4d8e0f7U,
  0xbc0cd425ffdf04d8U, 0xb10c40e1c3ff21b7U, 0xc9f5e8240edd02d7U, 0xb136fdb501eaf3f1U,
  0xeab13cfb16320419U, 0x14ced4c5eaf6de0eU, 0xdcd6f70814c0f1ffU, 0xe7d0e8e2ed0124e4U,
  0xecd2bf1c0b1106f4U, 0x92de3ed1e114634U, 0xafbdc212f0c59c28U, 0xcd04041c29bbd7bcU,
  0x370ccdeafccfa0ecU, 0xe9dc12a6c2c6bef9U, 0x30e61accd6b2f3e1U, 0xde051ccb15242acdU,
  0x1dbeda27f7abb821U, 0x1cc0ffd2031df6d6U, 0xbac9211a01e2cc1aU, 0xbb251f19e42b1709U,
  0xfbccdf60b1b8fd8U, 0xb6e6c2e52ee3e117U, 0xc120ceb324aebd47U, 0x2c09b2ef05fef524U,
  0x321dbcffe505d6daU, 0x24f0c602b8c1fcb0U, 0x2333f423d6bfe90dU, 0xc1ce2b2b11fe19d5U,
  0xf6b6d538f41e150fU, 0xd3e5f8f7d6dae9d3U, 0xd0210ac11e2cedecU, 0x2ec1f6e8b4d42e18U,
  0x1228f2bab6a6ef05U, 0x18dc2f0005f21423U, 0x172af32bb8041341U, 0xc7f7d618d22cd3dfU,
  0xfd733ff32d2c60bU, 0xd03fb498fef1d638U, 0x43b035232fd91706U, 0xc6f5cdd4c013d8e6U,
  0x18292945e00205ecU, 0x31bdba382ab3e820U, 0xe122d1132825a5fcU, 0xd81a2429f80f151cU,
  0x32c5e2c42ecd43ecU, 0xfbdd1bd8cdd5e5e0U, 0x71be00c1ec12aaeU, 0x22df2f1239c527f4U,
  0x14bd2cf8eddf0e2dU, 0xd2deff07d7d6c3b2U, 0xf221ea06d3fbed2fU, 0xb8f12d15f6fb1f27U,
  0x2b9df7c72912f2e4U, 0xffed01fce8463b46U, 0xcf30422f2fd631eaU, 0x82b070fb621280aU,
  0xbbbfe5e8f4ebb919U, 0xcb01c9c5c42efb3aU, 0x16e73808162bd3eaU, 0xe839c5d831e1ffedU,
  0x31f8fcc7bff2f8bcU, 0xb8cac4ebd2d1bfcfU, 0xe730fd26f4e6c72eU, 0x908d7f60f27c7b1U,
  0xfd109d46fe0b0fe1U, 0xf0310cb5e516bff9U, 0xd8b81b1238b18f32U, 0xddbb0b183122c1dcU,
  0xebff34daed2eb70bU, 0xebdde3b5d24c3802U, 0xfcc702dfc9ead9e9U, 0xf51c07c2d2d4c517U,
  0xfce0ea1a12fdc9caU, 0xd7c8d6b3befe39d0U, 0x35d8cbd2fbb194f3U, 0xb1332333b9d601d5U,
  0xe504f913cef48722U, 0xd0dad28b2438f9feU, 0x1d25d107def5eb27U, 0xef93d03720183900U,
  0x13d1a8e3e5cd0ef2U, 0x7dd2ad1333024ffU, 0xcd281113afbcf733U, 0x39063639d6ca2cceU,
  0xc78f1cdec8d5cf15U, 0xdedbddf8092d28a0U, 0x30d744b1f7b920b6U, 0x4414ebef06c6c437U,
  0xd116942824f5dc37U, 0x2635fee0d8bae433U, 0x8bce9f1b1c9d40eU, 0x15b71fc202f2ddc8U,
  0x1cf9c53034e10f23U, 0xf7b2f3bfe424c7b0U, 0xf3f305b42eebcdc8U, 0xd50d272dfd40fe1aU,
  0xbf032524b4d7d0eaU, 0xf3f9eac1d216e6eaU, 0xd820cb0e29c23ac6U, 0xe5a729f9cff81040U,
  0xe5c907b439bc3519U, 0xc3cc1d9bbafacf07U, 0xb8a4c2d93b0d1dbbU, 0x36ec01e908060ceaU,
  0xd380dfd2bb9e431U, 0x50cb1de0732ced9U, 0xb13835b3cfeef42aU, 0xb7eb30bed5feb63fU,
  0xdac742d3fcf7bd40U, 0xf2fc26dabe2b1ad9U, 0xf2b811f2d641f3bbU, 0x2636130811393fbdU,
  0x211dede6e8ce0bbeU, 0xeb181929c9133af3U, 0x20f1e4c2f4dce8bbU, 0x13c93039032411ebU,
  0xe6fedf301e1af6c5U, 0x31200f9b801f7feU, 0x1f24c3e83ddfe10fU, 0xf2d11c2ed5cfb718U,
  0xcbe1fcd224efc123U, 0x2d31fcf0d428e9f5U, 0x23dab01cc1e9fbd8U, 0x6c84312f0270ec7U,
  0x179e44cf11def8d8U, 0x2cde08ae1433fe09U, 0x38d1e1ece2e3391aU, 0xfa2d2a21bd2ad7deU,
  0x2af6c20d2696c5b6U, 0xb6f73734c92e45bdU, 0xb700ebd1ce2de0d5U, 0x818ccf3ddfc2d23U,
  0xb583eccfe1068137U, 0xb600388bf4dd1920U, 0x2c05d5c6d71dc3e3U, 0x32014c3c9fadde8U,
  0xe938022c3090c303U, 0xddfd38c5b6d70104U, 0xfe319fbecb0f928U, 0xb634f31dbe14c942U,
  0xe30d12eed5f632U, 0xc4d4def610331bb8U, 0xb8ffc8e017e62ae5U, 0xfa1921e109f5f4e0U,
  0xc2108ff4292f0f10U, 0xf4f6162ac9caf621U, 0xea1838b1e6d7c0f8U, 0xea2dda3014ed2c3bU,
  0xf9ebc8ed07f72329U, 0xb816bce12afc4715U, 0xd2ccb7ee130002beU, 0xc5062a16daf308e0U,
  0xbf1efd1cebca08fcU, 0xf9391e3ae5b318caU, 0xe6302b28e035c9d4U, 0x383a32172530da0fU,
  0xe6f6e716ef0ed217U, 0xddbf21c2ec13b1deU, 0xd6d6ed2a3533b3efU, 0x18f1bbd2c2bb37f9U,
  0x8d101f5160dc41cU, 0x19f9c406c11b1823U, 0xc015bdf51526a9e3U, 0x335fa01cfc6353aU,
  0xb5c5de37e4460617U, 0x1aeff1d9c5fd15ceU, 0xf3bde3acd0bee021U, 0x622e2fb20210afdU,
  0xe12e9ffcd9001fb5U, 0xc3323ec2d4ba20c6U, 0xf0e42d19d115f1d6U, 0xddb6d80a14bc100dU,
  0xb1ecf6c00039e232U, 0xe917c2f6f938bcc9U, 0x15e8ba101310db31U, 0x28ff18e42014d7e5U,
  0x19f5f4fef79f2335U, 0x3715182200e11739U, 0xec62c130117c103U, 0xc9deecf4e7f7dce4U,
  0x29fddb18eb32e1efU, 0x2a1efbd333003406U, 0x20c50a98db212e16U, 0xdbe72e3810cd38eaU,
  0xc0c6c60a90fc04U, 0x142f2608d8c70de7U, 0xfad6fdc0b90a97deU, 0xdde31e0dc904ba04U,
  0xd388202a33ed00d7U, 0xd0f7e38ab8db0d13U, 0x11d10fc6f0d4e325U, 0xe4bdf8ebbdb4bffcU,
  0xd32c94effcf82be7U, 0x323ed4c6d5e63b0bU, 0xc0f8b9e7e816c8e3U, 0xcf0b08c4f1d5e7d3U,
  0xcff709c5ddb78a09U, 0x11f2d2fecf2534ccU, 0xd0caf9d32e0be22cU, 0xae42fcec2d7d62aU,
  0xc5dac6f4b607c6cfU, 0x39213522c9d31119U, 0x1cecf3d608b826afU, 0x5dedbe3fbf805fcU,
  0xb3d609d404bfd3c6U, 0xc5bcf3c22a37e6b4U, 0xd1a6fbdb332f1b0cU, 0x2302d2ce25e1b903U,
  0xb1b1b8ffd209dcecU, 0xf30843cbfc010bbcU, 0x33b52bf01505fd95U, 0x171de42a1e0d22deU,
  0xb905130cf4dac802U, 0xd22803fae7de1cb3U, 0xb8fbc50de4fefb9aU, 0x341321b7ffb2f0fdU,
  0x21c9f5ef38b6b7daU, 0x2b13cb1fc0c1f8f2U, 0x1fe623241315bed7U, 0xc2b5f321d1d3c8c1U,
  0xf6b8b4f7dee3b428U, 0xfe44e2fe0ebe13c6U, 0xef21c3df0e3acfdbU, 0x2826ced21bd8cac8U,
  0xbbfbf5d5e33505e5U, 0xdc1cd02ac72c0936U, 0xee30ecddebe1d6dfU, 0x7f324d109ed012aU,
  0x378145bb21fce509U, 0xf7ebe59c211715b9U, 0x10cb03a431141fd6U, 0xbdcf9bd9bc2fdcdbU,
  0xf8f7834002d3b4f4U, 0xd3ea1df2ea2e2609U, 0x503d7f1cdfee838U, 0xffd50ec6ef302e34U,
  0xebfbf2b5120ad61fU, 0xf118fad5dfec0dacU, 0xf2b511ea2b1118e9U, 0xc50d002c07c02708U,
  0x5ce9fdbf9b8d902U, 0x1001eb110d011e28U, 0xbddbefb1b7b7a2d3U, 0x31273ce92cff2fd4U,
  0xecb6e31cb8ffca2dU, 0x26e024def20ae8dcU, 0xda1203ca24d129bcU, 0x80fbbfe251401dcU,
  0xb3cccfee19e1f9fcU, 0xc9ea2ed4b60eef35U, 0xd515e8d1eacfa11eU, 0xec20e2ecdadbe903U,
  0x22ece1b237b411d4U, 0xec06f4b3bdc7ce30U, 0x300843eb1ff31ad6U, 0xc712be02b3c8bcb4U,
  0x2329d1da1ca8aee7U, 0xe3ff42abf2bc02cU, 0x15fef2fffe021c1aU, 0x120d1129f3130704U,
  0x231140e0c032101U, 0xf41902090e162407U, 0xeb0c190104f903ffU, 0xb040c31fe070e08U,
  0xec02130bfef1ff03U, 0xd1922261c0f1601U, 0xf6f5fe02030014fdU, 0x3afc140c01ff0105U,
  0x230f0b080d2502U, 0xf8f1fe27f50717f9U, 0xeee407f801f601feU, 0x111209ff030e15f2U,
  0x4ef1409fef005feU, 0x250901ec11040903U, 0x11fd0b07fe020d10U, 0x22fb102d1e15e605U,
  0x38140500072001U, 0xfde90112f1161211U, 0xe70d1014fdf203f2U, 0xfc10fb10020938f9U,
  0xfcec2603fe0b0800U, 0x110a0e0101f70803U, 0x900f101feff0703U, 0x12fe022511fef1feU,
  0x11d1608010b2101U, 0x3fe001a0a101a07U, 0xee0f120ffff8fff4U, 0x110112203132e0eU,
  0xe4ef1e0205000106U, 0x13090412f9ed0403U, 0x8050b0cff01fef7U, 0x13fe201df110dd00U,
  0x40e0e0d01020803U, 0x6f5fe2001191911U, 0xdf1a260000f904f4U, 0xfb18fd2b03052c1bU,
  0xe9ed0503fb00ff00U, 0xf30809f2faf70805U, 0x11fb0a040200ee0eU, 0x25fa07170604f6feU,
  0x51b0c0ff90ffafeU, 0x306fdf7f70f16fcU, 0xdd1c0dedfdfdfff5U, 0xfb1bf548030d1d0eU,
  0x16fdf4fff7ecff00U, 0x40c021af5f91506U, 0x12f4f9fcfefff818U, 0xbf92004e406f402U,
  0xa0b1416f9050902U, 0xfb1dfefcf60b0af1U, 0xe21605e6ff00ffe2U, 0x7190916010d2114U,
  0xfcf0fe0500020302U, 0xfd0615eff6f9110bU, 0xfaea0203fd020a02U, 0xe9f2130a2416f8ffU,
  0x13df91910032e02U, 0xff09020dfd0014edU, 0x2ae31915ff02ff07U, 0xf9f2fd22000b2df0U,
  0x60c0d04fe0e0303U, 0xf9160e3ffdfef401U, 0xf4fa12f9ff02f6f4U, 0xe9f42f0deeecf003U,
  0x5160a1505025a01U, 0x4eb0118f4131520U, 0x17ecfd0802fe02fdU, 0xf6eff5490008160cU,
  0xf2fb600402080602U, 0x12fff823f4ea1504U, 0x2f2fc1604030cf1U, 0xd5e50c1ef406f007U,
  0xcfd0e0209004cffU, 0xf8060001fe052903U, 0x14fe0101010704f3U, 0x2aee232b01023df4U,
  0xec334505fff30307U, 0xf80614051bf11202U, 0xfbfb00fc0002fc0aU, 0x19f51307fa0aeb03U,
  0x5ed0d0406011b00U, 0x30efffe041b0b0bU, 0x2efefa05020f041bU, 0x1105fa3501fc1704U,
  0x1213200100deff0aU, 0x814081724091a04U, 0xf815fa050202f30dU, 0x48e82ffcec01e401U,
  0x90509fffc0414ffU, 0x90b02fa071316f9U, 0xfb0af4ea020401fdU, 0xa06013201062ae8U,
  0xf019070100de010aU, 0xc04013f06110c07U, 0x70000000501fd03U, 0x1a0039f3011b0901U,
  0x20d070d02fffa03U, 0xa14fd050517fff5U, 0x817e60001fb07f2U, 0x1cec1d140003fa03U,
  0x52afc03000000ffU, 0xfa090f1e14e80efeU, 0x12e1101103fe081cU, 0xe7ef46f8251dfc03U,
  0x625040bff040efeU, 0x3e7fd18f00f2102U, 0x1311f60dff0103fbU, 0x1ff01206ff0033e6U,
  0xeceb050300f60304U, 0xfc0b124cf6f7fcfeU, 0xb1111f50201f5ffU, 0xfb1a2ef3df21f9ffU,
  0xfe09f9020d002ffdU, 0xe00f1ef0919f7U, 0xf91a0d1eff040002U, 0x1304e710010c49f2U,
  0x7fc0bff04f7fe06U, 0xf7241010f100fb02U, 0xed0a0004020100faU, 0xff0a27f0ebfff301U,
  0x10e04f90a014fffU, 0x1fee5f51101f2U, 0xdb0e0a1501f805fcU, 0x30f0b42ff0616f6U,
  0x3053ffd02f10507U, 0xe9080513e7f913faU, 0x30ced04010307f8U, 0xf70e3cf4ff07f804U,
  0xfb27081208fe2301U, 0xf8f001f603020bf8U, 0x131013ea02ef030fU, 0xcec093e01fa10f9U,
  0xec0c4404fdec0405U, 0xf51114f5f8040e0aU, 0x3fa000902031cfaU, 0xfb142eeb040bfe02U,
  0x132030804050600U, 0xedfc0318012b240eU, 0xf4060c0b0301ff00U, 0xe7f01c3301fb1a0bU,
  0xf3ff1a09fff00203U, 0xe5010c21ef0f1e06U, 0xf6fafc05ff231bU, 0xe0306020dfdf9feU,
  0xff030c0504021401U, 0xfd0501070f06200dU, 0xfc090c1efef80403U, 0xf1ed082ffff917f3U,
  0xdfe06010214fd06U, 0xef060b0bf70b1804U, 0x17fffe050301fdfaU, 0x2a012a09fc2efe02U,
  0x2e50c12fe0204feU, 0xffdfff5ff092be5U, 0x901090202030207U, 0xfef5f1250206f603U,
  0xf7080305fd1a0208U, 0xee09172fe10a1803U, 0x21f2f7f9fe02f807U, 0xf9f34a0afb3eff03U,
  0x7f60b1e01050affU, 0x17fd01f2ee1a1918U, 0x40b00ec00200112U, 0x13c81f67ff067ff1U,
  0xff11fb00fbf50203U, 0x11121a1b06fa06feU, 0xfc070cfafcfbbdf8U, 0x207ef09f71607fcU,
  0xfdf613160dff44fdU, 0xef0fe08201c1bf3U, 0xaf8fdd10001ff0aU, 0x9efff3aff0846f3U,
  0xc0302fefe05fffdU, 0x1b191b2a06060800U, 0xf8130cfbff03e0f7U, 0xf20e0cfe0309ee04U,
  0x50c0a080b033601U, 0x5e2fff5100d0bedU, 0xfbf00beb00fb06ebU, 0xfaf1fb1c000612f0U,
  0xee8250602ff0400U, 0x150a08110f031401U, 0x413fbfa0103f5efU, 0xe607061c20fe0c05U,
  0xfc070a13070529feU, 0x4f602000206010bU, 0xd7e8f90102fb0518U, 0xfbf6f8030104250aU,
  0x1fd1103fcfe0103U, 0x150918490b0c1b02U, 0x302f5ef0300ee05U, 0xfe04240d1305f401U,
  0x313010f03012b01U, 0x514ff0311170fecU, 0x33ecf61200f20214U, 0xf71a05000417f6U,
  0x1402f90102000204U, 0x111f0837f3f01808U, 0x61ef603020306dfU, 0xf30518fb05f7ec02U,
  0xff1f06fd06ff29fdU, 0x7f3ff030c0d08e4U, 0x33e3f0ea02f90119U, 0xf10012f2ff0712f9U,
  0xf1f6fdff00fcff01U, 0xf4160630f901080eU, 0xf11c0309030000f3U, 0x5000eef0d150a02U,
  0x24081201031001U, 0xfe0502f71aff0be7U, 0xe7e2ed02ff090107U, 0x6e2e71d000b06f1U,
  0x5f2ec00fe060207U, 0x14071a1bf9fd0e02U, 0x1f1206fa0301e0ecU, 0xe30b190112450203U,
  0x125071c0305fdffU, 0xfb0001db10040612U, 0xf0e00efc00f902f9U, 0x11e5f236010773fbU,
  0x19e7f101fe050101U, 0xf203121708042a03U, 0x2e3100efc02d402U, 0x1f0f10fef00b10fcU,
  0x5e9f6e80afff701U, 0x20ffff3150b1606U, 0x32f4f517ff11031aU, 0xe00ee140fd0837f4U,
  0x10ecdefd00f2fc03U, 0x1417104aec000806U, 0xf8121308fd00f1f0U, 0x1e130f0417fd2001U,
  0xb03130f090414ffU, 0x142dfef9fd120bf0U, 0x12eff1f6fe110212U, 0x108e6300304f708U,
  0xfff2ff0201f70203U, 0x11fe073306001f07U, 0xf7f3f8fcfd00f614U, 0x71624090fe71e02U,
  0x6fc16170b0519feU, 0xfefcfffa0c003102U, 0x21e9d4fe03150404U, 0xf3f6dffc03f713eeU,
  0xf0070afffff80204U, 0x15021719f7012206U, 0xeb001312feffe908U, 0x17031208faef1702U,
  0x2f60a0c06021000U, 0xfff702051b04121bU, 0x2820d40c01190318U, 0x260e0d18ffff3111U,
  0xd610eeffff00fe00U, 0xf01601080c0d0802U, 0xf6fe17fefdfde90cU, 0x131924f6f2eb1503U,
  0x3ee0f1e00010e03U, 0x116ff07011f1719U, 0x2622e4fa01310117U, 0x421e00fc02ff0f09U,
  0xe0dff8ffff090202U, 0xe10c0a0f0400260dU, 0xf0e5100f0100f100U, 0x121221d7171818feU,
  0x3fd061702ff06ffU, 0x516fe0b042c0f06U, 0x1bdfcbf1030a0404U, 0xfc0cfefdfe000402U,
  0xe7fcf4030004ff03U, 0x1051902030627feU, 0x1cee101cfefe0110U, 0x2b192b24175a1a00U,
  0x1effb1704000d04U, 0x70800f2150e1520U, 0xbf705f801360414U, 0xdd12f43001085b1cU,
  0xe01ef20100e90100U, 0x1a131c13e81b1d06U, 0xeaf8fcfafd0104f6U, 0xed0618fd190611fbU,
  0xfc0f0a17090207fdU, 0xbf1fe1318140e0cU, 0x811def5011803faU, 0x18f2102dfe0232ffU,
  0x15cffafc0203fc02U, 0x3160800f7e81801U, 0xfc01ffe4fa0212f0U, 0xf0f090904ed12feU,
  0x5f00a15050617ffU, 0x241efef906fa05feU, 0xa09df00010f000eU, 0x1e0311fe0300e605U,
  0x1de917020208010fU, 0xeef41611fcf8f7feU, 0xf926ff0fff010401U, 0x1600060cf3df0401U,
  0x3f80a170b010efeU, 0x91200e709fa0508U, 0x1216070cfe030211U, 0x110912e205fb231aU,
  0xfb1d3a05fe04ff01U, 0xf9070f09e6f1f403U, 0xf713f427fa02fd02U, 0x227f9f2f5fbf601U,
  0xa06f71a07020600U, 0xafbff0017f518f8U, 0xfc100cff03100012U, 0x28fed31bfcfe2300U,
  0xf106270202feff02U, 0xdbfc0714fefd08f9U, 0xeef2fc12fc010023U, 0xf81f1325fdf3f700U,
  0x4fd041c06fffcffU, 0xc1201e9fb28fee1U, 0x24f8110401120101U, 0x29fcdcf003051af8U,
  0x8191a00000f0208U, 0xf70cf3200800250cU, 0xffe6f220fdfffe05U, 0x1f0919ff0c122401U,
  0xfdf6002200fefefeU, 0x162dfff80e270315U, 0xf0802f202fafe0cU, 0x3dfbcc35fffb1003U,
  0x12f41b0500f8ff05U, 0xe1070c08fdf5280aU, 0x11e61915fefefa04U, 0xde5281912462301U,
  0x1fa0313ffff0101U, 0xfd0c01fb16f6d1fcU, 0xfbe418fbfcf9fe09U, 0xee0ad5c2fefd4010U,
  0x1d1916fe02160301U, 0x1b1b0ffeeff91807U, 0xde9fcf9010100efU, 0xcdd0a05e907eefdU,
  0x5220b0308ff0b02U, 0xd72101e5300ef219U, 0x22ff040dff190700U, 0xea0af807000dfdfdU,
  0xafff803ffe7fa02U, 0xfbf7121c15f4ff07U, 0x1dea2813fe0306ffU, 0x1be91518fbfd0dffU,
  0x71a110804fe14feU, 0x515fef60e020e1bU, 0x48fe2917fe0702ffU, 0xfdf1f556ff0b0421U,
  0xc0202ff02f40005U, 0x1704fef810140905U, 0xb08f5fcfcfdf7fbU, 0xf8e7311cfdf50903U,
  0x7010e060a052801U, 0xe428000a0cfc2bf3U, 0x2b1329fe01fb0239U, 0xf105f3030008170eU,
  0xfb08080202f5fd04U, 0x90b0a25fa1c1106U, 0xff2107d7fcfffb19U, 0xf3d31deee2ffe900U,
  0x909e81102fd0604U, 0xe82901fefc1ce3ebU, 0xa0d1a1202e90119U, 0xe1f2f6eefe0531ffU,
  0x2cf0008fe0c0100U, 0xe403ea0ff10a1203U, 0xb2712ffffff020dU, 0xead720ccdef60afeU,
  0x1015042102011402U, 0x8fe07182cf4ebU, 0xde1d0b0e02e6020dU, 0xcdfefb09fe042c1cU,
  0x16ed0509020f0208U, 0xec04e934ef062203U, 0x16fd04f7fffdfe0dU, 0xf7f04017f3171700U,
  0x2010311ff0306ffU, 0x61200fb0c4b181aU, 0xee0afdfe02daff15U, 0xcff5ec3f02034b1fU,
  0x30dff08ff030007U, 0xfc1f0c27e5ff3d07U, 0x33e8f1f3fefdef36U, 0xf3e8231dd0370c00U,
  0x602fd08040413ffU, 0x2552ffdc2f34030fU, 0xe2f81cfa02d4ff15U, 0xc918f21c04070828U,
  0x3381600fe020004U, 0xff101f02f6fb1805U, 0xc0bf7ebfdfff71bU, 0xfa0afe07f9fde2fdU,
  0x81a06f9080be600U, 0x16f5fe02001414f8U, 0x40df2e402e301f7U, 0xfcfef60cf90b05f1U,
  0x8dcf5070011fd06U, 0xf2ff060108f805feU, 0xe110e0200fff90bU, 0x10fcf05001a02fcU,
  0x9120b030313ecfeU, 0x5e800f9f51320fcU, 0xfe13f5f6fef402f5U, 0xf7f0021aff111306U,
  0xa04f908ff02ff06U, 0xfa0e090dee130903U, 0x825000cfcff0211U, 0x10ffd50312ed0000U,
  0x8090711050afc00U, 0xfefd0004f30c21eeU, 0xf2070905ffef03f4U, 0x1ae20f00000df5fdU,
  0x4f9080eff1afe02U, 0x4091909110f2603U, 0xfb19f90efdfe06f1U, 0x1efcdd110f00f7ffU,
  0x51a2112070b0401U, 0xd07ffffe51c18e8U, 0xf11e0910fe0cfcfaU, 0x11fa0df20108ff07U,
  0xfc08010216fe08U, 0xf6fa0629ede40900U, 0x601e6fc00fe01ebU, 0x20ecf404e9fee7ffU,
  0x7fe0905010fffffU, 0x709ff05e6f809d6U, 0xf90ff504fde80af3U, 0xf5fc18e601122001U,
  0xceff8fdff09ff03U, 0xed0cf91afaca0a00U, 0xee6d1fc00fdfef3U, 0x5e2f927f41eca00U,
  0xfffb1c0d0406fafeU, 0xf9dd0114f23a20dbU, 0xf8ea0dfdfec3fed5U, 0xc7da0df6010b10efU,
  0x7090408ff1700ffU, 0xff14031502d32306U, 0x23cad60dfa000cf5U, 0xd7d7120ff046d7ffU,
  0x6001a1203010802U, 0xaf4fe1dfc2c18f8U, 0xfad405fc01dc02e0U, 0xdcca11f701083be9U,
  0x210d0bfd01150008U, 0x141bf901e21afdU, 0x111dfef503ff29f5U, 0x7f0312e101425ffU,
  0x71205ff0b0329fbU, 0xfa140222f1280ff3U, 0xea1e0fd2fddffceeU, 0x160e282ffb080514U,
  0xdfe91d2d09d10301U, 0xeb042a1efade2df9U, 0xda1506f8fafd12f1U, 0x1b0b31e923f92c06U,
  0x9250909010a4003U, 0xf3030418270722e8U, 0xe11911dd0005fbefU, 0x1706072aff083df7U,
  0xdde9411b00d708fdU, 0x1d0a032ef4f70601U, 0x100a1ef801000f16U, 0x16fb0ced23050f03U,
  0xd210f0b08032700U, 0xfc03000a200015f4U, 0xe50f0ee4fefafbeaU, 0x102d092b01057302U,
  0xd8d53b0e01f505ffU, 0x1e0a1d2912ed0b02U, 0xf60914f702051002U, 0x21e62de7f20502ffU,
  0x71809f902012800U, 0x212fe350d0806f6U, 0xe00d02d2fdf300e8U, 0x10201342ff12380bU,
  0xd6111d1003da06feU, 0x14041a5434f90e02U, 0x5071911fc00fa0fU, 0x27f72ffafb1415ffU,
  0x41f050d0c0a1603U, 0xfa00fc17111216fbU, 0xe3160bf6fceaf7e4U, 0x240f2320000d781eU,
  0xe12070be40000U, 0x3602070f1d050c02U, 0x1203170401fd0205U, 0x1b0b1ff103ff2104U,
  0x93805070707f3ffU, 0x1f900fdf7070bf5U, 0xe61c19f001fcfbe9U, 0x130c0839ff115205U,
  0xebfa0803ffe800feU, 0x4a0f194009020900U, 0x8f5f7ec01fd0a11U, 0x7f01ce61b160203U,
  0xb44000b040b1302U, 0xf0ee0206f90116f8U, 0xdf18feec03f9f7e4U, 0x19fb0927fc162ef8U,
  0xe1f9230a03f800ffU, 0x43130b37faf40b09U, 0x5ee04f00003172aU, 0x160f231a4710ea04U,
  0xfef5012008fffb01U, 0xe206fece28181521U, 0x27e800dc00f5fb09U, 0xa1be244010d430bU,
  0x9ff010c03f906feU, 0xf6102212221b2902U, 0xde08f105ff013c1bU, 0x9121e0f39f8e800U,
  0xff4d090b00074200U, 0xfa2102f2f20e1a13U, 0xfdedccd802fdff17U, 0x214d827ff080607U,
  0xb0620fefde90701U, 0xb0e032502f926fcU, 0xf6f9ff070202183bU, 0x80c320247e7f600U,
  0x6520d0c0d041cfdU, 0xe635fdea0013352bU, 0xef9c4e7fd03f60fU, 0xf802f063fd0b560cU,
  0x9152f0201ee01fdU, 0x1601092e08f81cfcU, 0xfc0613290004f044U, 0x1afa15e54e11d808U,
  0x120c000c06fefdU, 0xe50001dff936fe17U, 0xfe6cbe40000f815U, 0x70aed2efb0021e5U,
  0x19f605fa03da06fdU, 0xf112113630f428ffU, 0x715061100fb0726U, 0x29f3180d4617e900U,
  0x4200bfa0f0503fdU, 0xef08fff10c113e0aU, 0xf5efe4ec01e0fdfbU, 0x16eeeb69fd0630eeU,
  0xfd020501fdfdfe02U, 0x5090e1623fe17feU, 0xfcf2041202fc0b20U, 0x190f0a1966001101U,
  0xfe1907010101fbffU, 0xf925fcf9fa171009U, 0xd016e8fbfdedfdf8U, 0xefef645fd0108feU,
  0x91712f8fb1001ffU, 0xa091d0918f92804U, 0x22ffe00800fef610U, 0x1a081ef2553df804U,
  0xfe1c10160b0424feU, 0x81600e2ed13fe02U, 0xea01d5eafdf1f80dU, 0x11e7e11f01004103U,
  0xe8ee2a00fff800feU, 0x100c1b0e1df01e02U, 0xcce02f60205fcecU, 0xe407180f12062009U,
  0xffcc0b1f06070500U, 0xecfcffd9130d2023U, 0xd51c3200ff0af806U, 0xe815ec36ff0442ecU,
  0x12f9f10a00050200U, 0x9073106110e24f9U, 0xe0e404030303ff13U, 0xf0103cdc03f3f407U,
  0xf70b0904051ffeU, 0x18d401e606152018U, 0xee0cffebfdfefb03U, 0x2afafb5200041ed1U,
  0x13d41d04010401feU, 0xe315fe2009f307f4U, 0xfdfcf5f30100fc04U, 0x40816dcf7f5e003U,
  0xb2d0b17020416fdU, 0xedd02060bfe2c29U, 0x170bda26fee8f715U, 0x34eaf728ff0545e6U,
  0xfbc72f0701f40205U, 0xf20d0a3bee022ef5U, 0x702fdfc0100faeeU, 0xeff21ae10b13ef02U,
  0x30e18090b03fdfeU, 0x6dd02ffeb2a1913U, 0x1a09e43000effb12U, 0x3219f307fd0730e6U,
  0x5ecfafffef604ffU, 0xf2051238edf81e01U, 0x70206f901fee7f6U, 0x1202f1de04fbdd01U,
  0xeb19fe0a040cfdU, 0xfdd702dbf1f71e11U, 0x2ff3ed18fe12fb16U, 0x263cda48010140e4U,
  0x14e10b05ffee0002U, 0xe6090a2ee5fe1002U, 0x1de3fae305fffb0fU, 0x240cfdddf70adafdU,
  0x3e307fb0103f6feU, 0x1e01ffe1efff3b0bU, 0x1fe3cf01011bf804U, 0x5dbe616fa090ee9U,
  0x19eb15fcfefe0001U, 0xdcfc0634f3f00f05U, 0x15dc1ffe0200e712U, 0x2f2c22f20a321a03U,
  0x7050d09060a0f01U, 0x193902f5fb132631U, 0x5e104ff021bfb17U, 0xeee3d8f0fe0d0dfeU,
  0x1d070f0001f3ff00U, 0xf5ff183ffbf32804U, 0x14e0f5ebfffdf901U, 0xc80b0b30c81c0d09U,
  0xfaf40f0000020900U, 0x17290205302508fbU, 0xf7dfede6fdecfa09U, 0xcdf4f63bf70851e0U,
  0x118f209011001feU, 0x1f0e2810d4ef01fdU, 0xfa09d5f10100f609U, 0xda1a20f0cdf5e003U,
  0x303080808071b04U, 0x19f8fff7e5ff260bU, 0xefded20c0101fce8U, 0xe0270c2efa05fcf7U,
  0xaf51b06011e0307U, 0xff21fa25e8d61801U, 0x90bedfe03ffd8e9U, 0xeefe0af1dae20cffU,
  0xfb05180e06070a01U, 0xfafd0209fb0d0203U, 0xf5fe0f110209faf7U, 0x100a06f800fe21e6U,
  0x1030b08fe080100U, 0xee15163bfff02205U, 0x404eedaff00f304U, 0xefff23fbdd0deffeU,
  0xfc000c0c0e070e02U, 0x207ff1df22615ecU, 0x28ea2227030afcfeU, 0xf2f9101f000060d9U,
  0x80df704fd320005U, 0xf4130504ede2160bU, 0xef0cf9f002fdf5f2U, 0xfa12faedd0e4d407U,
  0xfdf317fc0c080f03U, 0xefc01f6de02fc02U, 0x28e6fbfa0511fd05U, 0xdcf6f9fbfc093706U,
  0xeaf700ff002001fbU, 0xf0b0a1ef4f6100dU, 0x615e7f701fef6f7U, 0xfb0e0607f4f00103U,
  0x8e5130f0505f4fdU, 0x18e4fde3f9f223ebU, 0xc8f8000c0114fd01U, 0xe0f90104ff0822efU,
  0x2413f800fd16fd02U, 0x15ff197f00f52304U, 0x28120ef400fe0200U, 0xfd140506ed3a1102U,
  0xd030e05080f02U, 0xfef200fa40fde9feU, 0xb0ee1011010cfb0dU, 0xeb0302f1fb07fdf4U,
  0x2a0e0405fd1dfe00U, 0x2b022440e9013705U, 0xfd9f8090201f9ebU, 0xcb0a2612e30ef503U,
  0xff16ff00090411fcU, 0xd04fe2400282c12U, 0xdb3b20db01fff916U, 0xd0ec0a46fa0047ecU,
  0x2e33cf0001f0fc02U, 0xe9281817db022cfdU, 0x18e0edff03070505U, 0xd50f30c3e4f40e04U,
  0x3310d0905081300U, 0xaeffdfbedf629fcU, 0x23fe0901e9fbf2U, 0xeadeeb27fc0810eaU,
  0x3a0d1a0001ef0000U, 0xf80a0c13f7f623ffU, 0xfde9121fff061607U, 0xe0ff61cb0ccbfd04U,
  0xc2815030c0318ffU, 0x15ca010e0c0d3bf1U, 0x1e08ee08fdfdfd0cU, 0xe8f2d03000fe48eeU,
  0x1ee711fafff6fd00U, 0xfe051e0fed1b0dfeU, 0xe03e41eff0109f1U, 0xce0738d9dc0c1300U,
  0xff230c040a0d0201U, 0x2be0030a05242cecU, 0x553d13f10103f91fU, 0xfdce834fd0b2cdaU,
  0x811eefb03f60202U, 0xf10a040b08053dffU, 0x10ee0303fe03fdfcU, 0xcf22fd0219041902U,
  0x1210c130d06f8feU, 0x14f800feea0634f6U, 0x401b1af500fffb1dU, 0x909e71ffe053efcU,
  0x14220afbfff9ffffU, 0x1909172311111b0dU, 0xf3df020cfffd0107U, 0xc81232f8140f1802U,
  0x51a0d080605ec00U, 0x19f60207ed01232cU, 0x31fcf124fe13f527U, 0x1fbe22ffe082404U,
  0x1b2305fafb0dfd02U, 0x2031536050c18fdU, 0x38d707ff0201ff18U, 0xd62231f20d243502U,
  0x423fefe0b04fdfdU, 0x1c10fe04ef090c18U, 0x3df6f616fcfafc1aU, 0xf2f8e227fd0c2114U,
  0x1d2008f7fe0cfa01U, 0xee081317e61a2808U, 0xf8fd09310104f715U, 0x10082227360b48ffU,
  0xfc05062101042501U, 0xfe35fd1ff1180d0aU, 0x221bfcdd020ffb0bU, 0x1215fb39f8fb38edU,
  0x1e2ef50305fafe06U, 0x12a27011aff43faU, 0x900f23400051f2cU, 0xf71322fd3afb39fcU,
  0x4f0102dff020afdU, 0x2a02301ff533f8U, 0x341bfde4fc07fc28U, 0x220a054eff011e01U,
  0xf91e29fe03180005U, 0x13f813071dd111fbU, 0xfb09ec2d0306141cU, 0x110e20f92fbf21ffU,
  0x6ff1621060419feU, 0x205001312e8f030U, 0x3afd09f00015fe1bU, 0x40a0726ff0947f4U,
  0xe52c330303ffff04U, 0xa0a28190fe60cfeU, 0x1afef70f020205f9U, 0xd0d1ef9350c07ffU,
  0x9e10e0708051501U, 0xfdfa00140a130913U, 0x27daf4ecfd23fc06U, 0x2b1bed3efc0630f8U,
  0xf50f1afd02fbff06U, 0xe070d1302ef29ffU, 0x1ffa0823ff01071bU, 0x1903e20c3a103002U,
  0xbf6000e07030c01U, 0x30b013533f6eddfU, 0x45d90bedfd26ff19U, 0x310404f0fd0b2d06U,
  0x6381409031ffd02U, 0x40fe102af5fd0104U, 0xbf6063502ff0017U, 0x3e81ef441f94301U,
  0xaf3070e0a03ee02U, 0x218fd0b0cfb0706U, 0x1fe3f8deff14fa16U, 0x1d05112200094ef7U,
  0xff2bf8fe03180104U, 0x8080a0df3f3fd08U, 0x13e8013dff04f818U, 0xecef252e52166c02U,
  0x8f7f5130305f502U, 0x75303021b02050bU, 0x21e20ad30012ff12U, 0x2afdf02801045013U,
  0xf03702f7fefcfc06U, 0x70ffefcf9031d09U, 0x1bf0f70c0204e4efU, 0x1df50b10211925fdU,
  0x6e0001009062a00U, 0x427fe1127352911U, 0x1205490701e5ffd9U, 0xf7e91b2ffe023428U,
  0x1f130cfeff080102U, 0xfb2d4a0eef141c02U, 0x320c100bfd03fcfcU, 0x2101170303172d00U,
  0x9fd2b0509030d00U, 0x1f55011500025c1bU, 0x71e52fe01f3f6e9U, 0x3e40d61ff094b27U,
  0xfa3728f903fe000dU, 0x16182317f81327feU, 0xfb08141602061df1U, 0x1ae629f408e13303U,
  0x3fc150406010700U, 0xff51fe17ee14380bU, 0x3264a11fd0ffdf8U, 0xfffe0c48000d4303U,
  0xc28180800110305U, 0xf8031c2600274209U, 0x16ddedf3fe042a11U, 0x1d11fe5d51027feU,
  0xff1515080d092202U, 0xfb3f0014edfc4314U, 0x29ff3e3202f6fae1U, 0xf706fb1dfb0a0912U,
  0x9030e020129fe0fU, 0xe107162908ff3909U, 0x39e7f81304011623U, 0x1de00ef4f50f4103U,
  0x7f70d000908feffU, 0x36001150c131dfdU, 0xeaff3a15fd24f8f7U, 0xf402f21300170f39U,
  0x46060200150103U, 0xf50b030407281f02U, 0xdf00e19010111fcU, 0xde628f928063b01U,
  0x10601040103ec02U, 0x847ff1616151614U, 0x1b052201001efd08U, 0xf5faeb4505134c23U,
  0x14470dfefe09000bU, 0x1a2818f815281101U, 0x140f3a21ff031706U, 0x11f510332a2463feU,
  0x11f5f0e7060313ffU, 0x47bfe11371b2300U, 0x29fd5e150100ffdfU, 0x170008190007204dU,
  0xb7208f90002000aU, 0x1e03202af8292804U, 0x2308f7f40703ed01U, 0xfea0a1f2a272000U,
  0xe260d20040edffeU, 0xef02fef80b3626fcU, 0x190916eb04f2020cU, 0xb121130fa070612U,
  0xffce0f601e60101U, 0x9133cf8cb09270eU, 0x10ecf1e705fdf606U, 0x20ed3a021b211501U,
  0x9240f17060ddd00U, 0xf0ef02f712210f16U, 0xd0114fc0108fbf5U, 0x220e1324fc0243fdU,
  0x122edfe01e80308U, 0x14060fe4c4100b0eU, 0x2f3e9e30000f10cU, 0x28ff21f51ef1fb02U,
  0x231af70a0d08dbfcU, 0xffe8feee232311faU, 0x1f2f7fa0400fbfeU, 0x40e1411fc0e4803U,
  0x1f08ecfffee3ff02U, 0x40e0df7f0fe0e01U, 0x8f8ece30300f1fbU, 0x2b0122eb1d180400U,
  0x171a07120804ec01U, 0x11dfff0b0b210b04U, 0xeceaf8e4fffdfd00U, 0xce71f17fd142ff6U,
  0xcfafa0202de0304U, 0xf2f51ae0fbfa2513U, 0xafbf8e502fdfbf9U, 0x1d04f3ee161bfefcU,
  0x1519fb0b0a0eeb00U, 0xf5df0308ff150600U, 0x2e1fdf503180205U, 0x12ee250e011239feU,
  0xfaf4ebfd01e50207U, 0xf3010ce8e1f7f313U, 0x10fbfef7fc02fa1dU, 0x380d13f50a06fa04U,
  0x9fdf50e0c0be400U, 0xf5d503ee10241e47U, 0x5f0f505fd17f9feU, 0x130e172002214c04U,
  0x1101e9fbfffffd05U, 0x91813edcf051103U, 0x18f80201fe02f11bU, 0x54091820232d0b02U,
  0x1b0509160afce201U, 0xf601ea122f21ebU, 0x7ff20010224fa15U, 0x416111bff162f22U,
  0x1e15dffd03fbfe04U, 0x22ee2917dd2c220fU, 0x1e2e05faea15fcd2U, 0xc1e7df1432d9f219U,
  0x2320180dd5d4c5cbU, 0xebcccaf9c8ad0a88U, 0xfae524c0f6071900U, 0x56afdad3e9cb0c1cU,
  0xd1f8d1fe16e40b34U, 0xfa3310e1fe99eef1U, 0x2ec0d3a7fac612d1U, 0xd6afd3d2fd2b12d9U,
  0xca26c50f2f2ce3d0U, 0xd51e1eeac52522a0U, 0xce0e1e21e4052fa6U, 0xf8150a22deeee1feU,
  0x9a23c21cfb96010aU, 0x5ee1aeb09e813f8U, 0xefa2f3e302e03deaU, 0xf1f322d8ede72ab7U,
  0xc01d21f3dafcf7c1U, 0xf10ffd1ad20022dcU, 0x17d604cbe1ec16cfU, 0xd625cd3021d8cf02U,
  0xa60601eb32ec04d7U, 0xf011d133dede1bdfU, 0xd10105ac32daf44cU, 0x2693302b1800eaecU,
  0xf3eb032cf50ac001U, 0x9cf4ef05d3f3e7e4U, 0xd6b5222cc7bfc4f5U, 0x32e28090dcfe40fU,
  0xe72bc01be2e1d308U, 0x2710dbc5fcdac6f0U, 0xe20420c7f6ed4115U, 0xf2aec4e8f7f91e39U,
  0xfae5171f0524ca23U, 0xc90ecee5dd33e6dfU, 0xc4f6f12a35f8ebd3U, 0xe315e605d50fdd09U,
  0xacd128cb1196e9fbU, 0x2f020fe2c6e91630U, 0xf501e3ce2d13471bU, 0x10ea1f1014e52a1dU,
  0x27d83cc00e230205U, 0xf3efead82fe3d2cdU, 0xca90cd8d208caccU, 0xd30c23d7022006d9U,
  0xd4f700f904adf016U, 0xccfd091adea4caefU, 0xf31b0de5eaf84ccdU, 0x14f9d229df0de919U,
  0xccc30005c535cbf0U, 0xdd04dd0ac4fb3f9eU, 0x30d3002afbdaf897U, 0x1d0dc5d8e0cc04f4U,
  0xbae715260adb18e3U, 0xf2341530d2fbc3d9U, 0xc999cfaef529b0fdU, 0x8c704ede100b929U,
  0xfc2f0b15e4fd13d0U, 0xcffad1a4c3b0cff1U, 0xcf96e410cbb70da1U, 0xcefdda2519ccfae7U,
  0xfad81e1f0a0ae8f3U, 0xccbdf630d0cbc620U, 0xff9509a6c0c0fa1eU, 0xd7d1c116bbe8c4f9U,
  0xecf33c31e513b6e3U, 0xa6b2f6d8ddbf20eeU, 0xca96054c01c725eaU, 0xfcda04d32d2af8a6U,
  0xe9eec2c4ed0718dfU, 0xbb1828e8dec714f8U, 0xe1edb1cb0824fed1U, 0xcfe81b01b62acc0eU,
  0x31f5f52eff102cd8U, 0xb8c5c820c905f8deU, 0xfebbb8cf24f9c8ecU, 0xa41b2e001af0f59eU,
  0xce3e70ee6defc06U, 0xcc0ff8ccd9a21e0bU, 0x2fa6fe06f127b8e3U, 0xf6bd00ffb4c6ffdaU,
  0xc8df2bc0caffc3faU, 0xc7e40821131a0dc3U, 0xd3a9d4f1dca2c4c6U, 0xcafcd7eeff142ec9U,
  0xb20addcfcfb7e91fU, 0xf2f402ecd6d32903U, 0xc2e6ccf01b19ddc9U, 0xd4e405dece0116beU,
  0x3216d320ccd3e2eaU, 0xd2c3e7e809f8f6d5U, 0xf3bbd231f5c5f9b5U, 0xf5eabffe29e1feebU,
  0xcdb61cd1e2251bd0U, 0xb202fbf724cf1916U, 0xfbb2efc2d7dcc4e0U, 0xbd00cad8ecda1e34U,
  0x30c6cbdadaebf7dbU, 0xcfc4daf4c7edef08U, 0x5bae5f52db420dcU, 0xc304e6f0cb3206a8U,
  0xabccebea0f37cd0bU, 0xce032dfb2be607ccU, 0xc0adc5ac02f40612U, 0xfbe3006f9e2d408U,
  0xf6f0032706f2e8c2U, 0xb8e6fb17e307e61aU, 0xc8d5f02fe2deffd8U, 0xecc92222e52d02dcU,
  0xc0af14cfdd20f7d2U, 0xea2109332ab6c820U, 0x250ceefa18d5d89bU, 0x12e01ec2bd120c19U,
  0xc7e5dac42fd8ec0aU, 0xe2f3d3ccd6eafdebU, 0xd4e3d0f2e5a2f2dcU, 0x6ee2119e326d895U,
  0xd1dbf0ccd8cfe5d5U, 0xa913d0daf4dfc702U, 0xf02facdd2efee2f1U, 0x15a5d6c9dc32e111U,
  0xfabadc2cd7e50c19U, 0xc61beb96d0bd07cdU, 0xfeee52ee5be0bf8U, 0xf2d207fbdfd7cdbfU,
  0x1d1109e12e062fe7U, 0x2a242310dbe302d9U, 0x2323c11ecf19ecc2U, 0xcc15232001d717e5U,
  0x1dd10b30dfe4ef0eU, 0x13fef4ca1cc6eff3U, 0xd7f33951eea123d2U, 0x5107e40935ef0eb5U,
  0xd31af9b8ff111301U, 0x202cf6112af71eccU, 0xf7d0bbcdc72c08faU, 0x2e0704d1230123fdU,
  0xf3d6e2ec18f4f4feU, 0xe6cfccc31503f3caU, 0xfbd0de1c18eff702U, 0xf129e6d1f52acaU,
  0xd318cbfc0de52d02U, 0xfef7c23110fa2dd8U, 0xdfe7e4e5e5f421cfU, 0x1ba5e606f208dd1cU,
  0xdbd03a302d2a020dU, 0x5e331fb06dd03baU, 0xe1f2b8b039f42df2U, 0xcbedc1225efeec6U,
  0x6f8c7090fc109e1U, 0xd2e130f10aef34dfU, 0xf4c1f9b4122fd09dU, 0xd4fadb140c2eff07U,
  0x27c00ff0d0f72433U, 0xd3f730409ee6fa89U, 0xea17e5a4ddb0f3c6U, 0x23cdf91df301288fU,
  0xe6ddc9c5debe2ee0U, 0x6caffdae1f619deU, 0x23f6a5fdc80e2acdU, 0xc50601c11a21ec23U,
  0x1014d3dada22ee2cU, 0xaa50d4d10e7ecd1U, 0xc6fcd8d9c6c71de1U, 0xbed3e0dcf62705dbU,
  0xe1fdd0d3d2f521f9U, 0xb301f8c40ab9fdd9U, 0xe0d10e32703f611U, 0xdfb506c6ce2007b7U,
  0x1f05d92d0ef91324U, 0xc2b2d0e006db15e7U, 0xd890f3c7d389f6c1U, 0xb301e7181603d9a4U,
  0xc0d9f4e729391ef3U, 0xc7f2ddd111c81ad9U, 0x12f7b8fe0910f7f2U, 0xf2d3e3fc1a31d42aU,
  0x2e3f5f118db19edU, 0xd3b8dbf9dec6e139U, 0xe8e1090029eddca8U, 0xbcaecbfec7d5beccU,
  0xe41c1b040332000aU, 0xc928f1e7fdb4e709U, 0x2cc204a7ed0cd7fdU, 0xeff514d61410c30fU,
  0xd71504c8ffdfe7f1U, 0xf43c1921d3df192aU, 0xf0f4221bdfcf0bd5U, 0x20ff9e7f20b17efU,
  0xf9becde92d3213fbU, 0x1a29cce4c7dd07c1U, 0xeedee0f3c5f5ba00U, 0x20a8091de8e8d5dcU,
  0xd8281b2c13ede2e4U, 0xabf60dd8ea24e1caU, 0xd30031eef2f1e8a6U, 0xfddc0925ddfd01dbU,
  0x140c42ae8d820ffU, 0xb0f05cb05de2105U, 0x16cab0dce71ef00eU, 0xdd8fcdd0d414e41bU,
  0xc2e32e71ee31811U, 0x93c9f9f4d210d787U, 0x2ca0d0eadcd62991U, 0x1ed1ee1321c5f6cfU,
  0x97d6e022dc0bcef8U, 0xcbd12e19d1092bd4U, 0xd1a1b8bc2b2df50dU, 0x20b625ecdae1ebe9U,
  0xe7fbff08e3d325c7U, 0xbf0632c322c1bbd0U, 0xd0d3c323e6d6fda4U, 0xf415dee0dd0403e3U,
  0xd6c307061ff9031aU, 0xb2e12a22d4e3cbdbU, 0x160da9e51d139ba9U, 0xcfacb208c3182f02U,
  0xeeb8fe14300c312cU, 0xd71c13f2ee0301c3U, 0xddece3013d9efed2U, 0x27e4f8da31d828b4U,
  0xc3a8e3be28faf82eU, 0x9f1ef1feea0b151dU, 0xff9ef91f29cc17ddU, 0x17ce14ded71cf4beU,
  0x18ef17200f25ff2eU, 0x13d7f52eb81222b2U, 0xe00635f3f4c7cea2U, 0xb40ffff7cfce1fbbU,
  0xe0d7edbe1ec52dd7U, 0xd919c42b2cb4e02fU, 0x21efbee41620c0c0U, 0xd2900925fafff1dcU,
  0xdf0e20db0dde0f12U, 0x431db2fefe6c0d8U, 0xedded5011dcc1b9eU, 0x61c1de0d512cff2U,
  0xd0031dc7009b26ffU, 0x20c3040fcba4efc1U, 0x2c91ed730e4e805U, 0xf9fa1efe0619e0c6U,
  0xd4cffe2712eaf3cfU, 0x1029cf070cef2ae3U, 0xd1c4362228d5edf3U, 0x4ffd828c6d8deedU,
  0x3e805d02cd5ee26U, 0xd9dac10bd0cee3c9U, 0xc9fc24f6c60fd8c0U, 0x32baf1ffe3f1101bU,
  0x2b1f3311df04d300U, 0xcb39d5dec6e3bee0U, 0x14c6e62fc4a12fc3U, 0xccdce7200031f0cdU,
  0xedf6deccfbe6e306U, 0xf8f8f0f7c9af01e4U, 0xe0a2c3ce1ee82697U, 0x10c6e2d3c4d0f5b7U,
  0x1cd3f01001dcecf0U, 0xce3f13ebb625e9adU, 0xd009d6fb2416cfc8U, 0x82e140edbdb0a08U,
  0xaedfea1ad0b516c3U, 0xce272124bf083420U, 0x31f101bd17ee18ceU, 0xede3df26dd15201bU,
  0xc5eefcfd19f72811U, 0xe6dbe7290338c2e6U, 0xcefe2cc0e1c9ccc5U, 0x22508e1da2514a3U,
  0xd35bd8d002bff522U, 0xbd232a1904e4191bU, 0x10db1dd0f316aaa8U, 0xcea5c83ecdcfd9dcU,
  0xe0d3c5e72fc1c8f4U, 0xdde5dc32c425f005U, 0x1ca225f7e7aeea9aU, 0x1424c3cd07f82a0fU,
  0xfe10c210d7c1d316U, 0x3f1dd520c40fde22U, 0x1208f0061ed204beU, 0x2dcaf80517d2f4b5U,
  0xc3e20cde05160127U, 0x6d4d6f1f510e49fU, 0x14c2ebfd2dd8fdafU, 0x9b1e919feedcdf6U,
  0x142b07cafeb7d628U, 0xdff0d326ec9e20d9U, 0x17eadc061c14c2ecU, 0x1b1adc02f1d1fab8U,
  0xd10ce026cd11f4e6U, 0xace52ab3d9e5d2c5U, 0xfe17d8d50d030795U, 0xd5fd0b03c134c2f5U,
  0xd4d0c624f5b100ecU, 0xd6e5f0c7dddbc422U, 0x1afeaccce4c92af6U, 0xe8efe11d06eaf1feU,
  0xee05f7f8dae708c4U, 0xb4eff22aea02ffabU, 0xbe09de9af3e22a1cU, 0xb60327ebdefd0404U,
  0xa41a04d418ea2013U, 0xe0828201ea0f91aU, 0x7f8a3a21f169bfcU, 0xc0fbff3c2d41bdfU,
  0x1dcfeff119d52ad6U, 0xfaddc1bb30211223U, 0xd0c8c9e92db33fc8U, 0xc8e924daec16e8e5U,
  0xa6d2cfffe1dec2ecU, 0xd41dd0bf1eb6bf07U, 0x17d9d5222909edc5U, 0xc51100252020edebU,
  0x2ec9e5c0c23f0accU, 0xb9ce23e0eff826d5U, 0xe0d61a0834a8270dU, 0xda0fc9fed91414d0U,
  0xc90be1c72be4eefcU, 0x3afc10dae0031531U, 0xde912f0f408b100U, 0xe8f0f8200e1e21feU,
  0x2ca1edc2c0227c9U, 0xbe082bfcaac33102U, 0xfeca29f2f9edf8caU, 0xcddd2a21163b19d0U,
  0xe22f2509e8c0d6daU, 0xf105c7041b02c309U, 0xff27a2b3cd14d905U, 0xe7f8c003fdf62be1U,
  0x21de30f8f114c0caU, 0xe1f305a20fb4eccaU, 0xf7b819fef0c30ad7U, 0x403f30d2029db0dU,
  0x3391d1110b9fddfU, 0xf7e41714ef06e0eeU, 0xe52901240ed0dc1bU, 0xc8c418c5440f1e0dU,
  0xc22b0bdfeb1229e8U, 0x13ea13c21c05ddd7U, 0x2ece3e1ee71dedfbU, 0x13dbbd01db00c233U,
  0xf72b15c10cd02bc6U, 0x8bc0ee6e30dd510U, 0x310f000aefc90c54U, 0xd0aded2e400cdee5U,
